{
  "version": "1.0",
  "truncation": null,
  "padding": null,
  "added_tokens": [
    {
      "id": 0,
      "content": "[CLS]",
      "single_word": false,
      "lstrip": false,
      "rstrip": false,
      "normalized": false,
      "special": true
    },
    {
      "id": 1,
      "content": "[SEP]",
      "single_word": false,
      "lstrip": false,
      "rstrip": false,
      "normalized": false,
      "special": true
    },
    {
      "id": 2,
      "content": "[UNK]",
      "single_word": false,
      "lstrip": false,
      "rstrip": false,
      "normalized": false,
      "special": true
    },
    {
      "id": 3,
      "content": "[PAD]",
      "single_word": false,
      "lstrip": false,
      "rstrip": false,
      "normalized": false,
      "special": true
    },
    {
      "id": 4,
      "content": "[MASK]",
      "single_word": false,
      "lstrip": false,
      "rstrip": false,
      "normalized": false,
      "special": true
    },
    {
      "id": 5,
      "content": "[BOS]",
      "single_word": false,
      "lstrip": false,
      "rstrip": false,
      "normalized": false,
      "special": true
    },
    {
      "id": 6,
      "content": "[EOS]",
      "single_word": false,
      "lstrip": false,
      "rstrip": false,
      "normalized": false,
      "special": true
    }
  ],
  "normalizer": null,
  "pre_tokenizer": {
    "type": "Whitespace"
  },
  "post_processor": null,
  "decoder": null,
  "model": {
    "type": "BPE",
    "dropout": null,
    "unk_token": "[UNK]",
    "continuing_subword_prefix": null,
    "end_of_word_suffix": null,
    "fuse_unk": false,
    "byte_fallback": false,
    "vocab": {
      "[CLS]": 0,
      "[SEP]": 1,
      "[UNK]": 2,
      "[PAD]": 3,
      "[MASK]": 4,
      "[BOS]": 5,
      "[EOS]": 6,
      "!": 7,
      "#": 8,
      "$": 9,
      "%": 10,
      "&": 11,
      "(": 12,
      ")": 13,
      "+": 14,
      ",": 15,
      "-": 16,
      ".": 17,
      "/": 18,
      "0": 19,
      "1": 20,
      "2": 21,
      "3": 22,
      "4": 23,
      "5": 24,
      "6": 25,
      "7": 26,
      "8": 27,
      "9": 28,
      ":": 29,
      ";": 30,
      "=": 31,
      "?": 32,
      "@": 33,
      "A": 34,
      "B": 35,
      "C": 36,
      "D": 37,
      "E": 38,
      "F": 39,
      "G": 40,
      "H": 41,
      "I": 42,
      "J": 43,
      "K": 44,
      "L": 45,
      "M": 46,
      "N": 47,
      "O": 48,
      "P": 49,
      "Q": 50,
      "R": 51,
      "S": 52,
      "T": 53,
      "U": 54,
      "V": 55,
      "W": 56,
      "X": 57,
      "Y": 58,
      "Z": 59,
      "\\": 60,
      "^": 61,
      "`": 62,
      "a": 63,
      "b": 64,
      "c": 65,
      "d": 66,
      "e": 67,
      "f": 68,
      "g": 69,
      "h": 70,
      "i": 71,
      "j": 72,
      "k": 73,
      "l": 74,
      "m": 75,
      "n": 76,
      "o": 77,
      "p": 78,
      "q": 79,
      "r": 80,
      "s": 81,
      "t": 82,
      "u": 83,
      "v": 84,
      "w": 85,
      "x": 86,
      "y": 87,
      "z": 88,
      "{": 89,
      "}": 90,
      "~": 91,
      "": 92,
      "": 93,
      "": 94,
      "": 95,
      "": 96,
      "": 97,
      "": 98,
      "": 99,
      "": 100,
      "": 101,
      "": 102,
      "": 103,
      "": 104,
      "": 105,
      "": 106,
      "": 107,
      "": 108,
      "": 109,
      "": 110,
      "": 111,
      "": 112,
      "": 113,
      "": 114,
      "": 115,
      "": 116,
      "": 117,
      "": 118,
      "": 119,
      "": 120,
      "¡": 121,
      "¢": 122,
      "£": 123,
      "¤": 124,
      "¥": 125,
      "¦": 126,
      "§": 127,
      "¨": 128,
      "©": 129,
      "ª": 130,
      "«": 131,
      "¬": 132,
      "­": 133,
      "®": 134,
      "¯": 135,
      "°": 136,
      "±": 137,
      "²": 138,
      "³": 139,
      "´": 140,
      "µ": 141,
      "¶": 142,
      "·": 143,
      "¸": 144,
      "¹": 145,
      "º": 146,
      "»": 147,
      "¼": 148,
      "½": 149,
      "¾": 150,
      "¿": 151,
      "À": 152,
      "Á": 153,
      "Â": 154,
      "Ã": 155,
      "Ä": 156,
      "Å": 157,
      "Æ": 158,
      "Ç": 159,
      "È": 160,
      "É": 161,
      "Ê": 162,
      "Ë": 163,
      "Ì": 164,
      "Í": 165,
      "Î": 166,
      "Ï": 167,
      "Ð": 168,
      "Ñ": 169,
      "Ò": 170,
      "Ó": 171,
      "Ô": 172,
      "Õ": 173,
      "Ö": 174,
      "×": 175,
      "Ø": 176,
      "Ù": 177,
      "Ú": 178,
      "Û": 179,
      "Ü": 180,
      "Ý": 181,
      "Þ": 182,
      "ß": 183,
      "à": 184,
      "á": 185,
      "â": 186,
      "ã": 187,
      "ä": 188,
      "å": 189,
      "æ": 190,
      "ç": 191,
      "è": 192,
      "é": 193,
      "ê": 194,
      "ë": 195,
      "ì": 196,
      "í": 197,
      "î": 198,
      "ï": 199,
      "ð": 200,
      "ñ": 201,
      "ò": 202,
      "ó": 203,
      "ô": 204,
      "õ": 205,
      "ö": 206,
      "÷": 207,
      "ø": 208,
      "ù": 209,
      "ú": 210,
      "û": 211,
      "ü": 212,
      "ý": 213,
      "þ": 214,
      "ÿ": 215,
      "Ā": 216,
      "ā": 217,
      "Ă": 218,
      "ă": 219,
      "Ą": 220,
      "ą": 221,
      "Ć": 222,
      "ć": 223,
      "Ĉ": 224,
      "ĉ": 225,
      "ċ": 226,
      "Č": 227,
      "č": 228,
      "Ď": 229,
      "ď": 230,
      "Đ": 231,
      "đ": 232,
      "Ē": 233,
      "ē": 234,
      "ĕ": 235,
      "Ė": 236,
      "ė": 237,
      "Ę": 238,
      "ę": 239,
      "Ě": 240,
      "ě": 241,
      "ĝ": 242,
      "Ğ": 243,
      "ğ": 244,
      "Ġ": 245,
      "ġ": 246,
      "ģ": 247,
      "ĥ": 248,
      "Ħ": 249,
      "ħ": 250,
      "ĩ": 251,
      "Ī": 252,
      "ī": 253,
      "Į": 254,
      "į": 255,
      "İ": 256,
      "ı": 257,
      "Ĳ": 258,
      "ĵ": 259,
      "Ķ": 260,
      "ķ": 261,
      "ĸ": 262,
      "Ĺ": 263,
      "ĺ": 264,
      "Ļ": 265,
      "ļ": 266,
      "Ľ": 267,
      "ľ": 268,
      "Ŀ": 269,
      "Ł": 270,
      "ł": 271,
      "Ń": 272,
      "ń": 273,
      "Ņ": 274,
      "ņ": 275,
      "Ň": 276,
      "ň": 277,
      "ŋ": 278,
      "Ō": 279,
      "ō": 280,
      "ŏ": 281,
      "Ő": 282,
      "ő": 283,
      "Œ": 284,
      "œ": 285,
      "Ŕ": 286,
      "ŕ": 287,
      "Ř": 288,
      "ř": 289,
      "Ś": 290,
      "ś": 291,
      "Ŝ": 292,
      "ŝ": 293,
      "Ş": 294,
      "ş": 295,
      "Š": 296,
      "š": 297,
      "Ţ": 298,
      "ţ": 299,
      "Ť": 300,
      "ť": 301,
      "ũ": 302,
      "Ū": 303,
      "ū": 304,
      "ŭ": 305,
      "Ů": 306,
      "ů": 307,
      "Ű": 308,
      "ű": 309,
      "ų": 310,
      "ŵ": 311,
      "ŷ": 312,
      "Ÿ": 313,
      "Ź": 314,
      "ź": 315,
      "Ż": 316,
      "ż": 317,
      "Ž": 318,
      "ž": 319,
      "ſ": 320,
      "Ƒ": 321,
      "ƒ": 322,
      "Ɠ": 323,
      "Ɩ": 324,
      "Ƙ": 325,
      "ƛ": 326,
      "Ɲ": 327,
      "Ơ": 328,
      "ơ": 329,
      "Ʀ": 330,
      "Ƭ": 331,
      "ư": 332,
      "ǎ": 333,
      "ǐ": 334,
      "ǒ": 335,
      "ǔ": 336,
      "ǘ": 337,
      "ǜ": 338,
      "ǝ": 339,
      "ǣ": 340,
      "ǵ": 341,
      "Ǻ": 342,
      "ș": 343,
      "ț": 344,
      "Ȥ": 345,
      "Ȼ": 346,
      "ɐ": 347,
      "ɑ": 348,
      "ɒ": 349,
      "ɔ": 350,
      "ɕ": 351,
      "ə": 352,
      "ɛ": 353,
      "ɜ": 354,
      "ɡ": 355,
      "ɢ": 356,
      "ɪ": 357,
      "ɫ": 358,
      "ɯ": 359,
      "ɲ": 360,
      "ɹ": 361,
      "ɾ": 362,
      "ʀ": 363,
      "ʁ": 364,
      "ʃ": 365,
      "ʊ": 366,
      "ʌ": 367,
      "ʎ": 368,
      "ʐ": 369,
      "ʒ": 370,
      "ʔ": 371,
      "ʚ": 372,
      "ʤ": 373,
      "ʦ": 374,
      "ʰ": 375,
      "ʲ": 376,
      "ʺ": 377,
      "ʼ": 378,
      "ʾ": 379,
      "ʿ": 380,
      "ˁ": 381,
      "ˆ": 382,
      "ˇ": 383,
      "ˈ": 384,
      "ˌ": 385,
      "ː": 386,
      "˘": 387,
      "˙": 388,
      "˚": 389,
      "˛": 390,
      "˜": 391,
      "˝": 392,
      "ˡ": 393,
      "̀": 394,
      "́": 395,
      "̃": 396,
      "̆": 397,
      "̇": 398,
      "̈": 399,
      "̍": 400,
      "̤": 401,
      "̯": 402,
      "̶": 403,
      "͡": 404,
      ";": 405,
      "΄": 406,
      "Ά": 407,
      "Έ": 408,
      "Ό": 409,
      "Ώ": 410,
      "ΐ": 411,
      "Α": 412,
      "Β": 413,
      "Γ": 414,
      "Δ": 415,
      "Ε": 416,
      "Ζ": 417,
      "Η": 418,
      "Θ": 419,
      "Ι": 420,
      "Κ": 421,
      "Λ": 422,
      "Μ": 423,
      "Ν": 424,
      "Ο": 425,
      "Π": 426,
      "Ρ": 427,
      "Σ": 428,
      "Τ": 429,
      "Υ": 430,
      "Φ": 431,
      "Χ": 432,
      "Ω": 433,
      "ά": 434,
      "έ": 435,
      "ή": 436,
      "ί": 437,
      "α": 438,
      "β": 439,
      "γ": 440,
      "δ": 441,
      "ε": 442,
      "ζ": 443,
      "η": 444,
      "θ": 445,
      "ι": 446,
      "κ": 447,
      "λ": 448,
      "μ": 449,
      "ν": 450,
      "ξ": 451,
      "ο": 452,
      "π": 453,
      "ρ": 454,
      "ς": 455,
      "σ": 456,
      "τ": 457,
      "υ": 458,
      "φ": 459,
      "χ": 460,
      "ψ": 461,
      "ω": 462,
      "ϊ": 463,
      "ϋ": 464,
      "ό": 465,
      "ύ": 466,
      "ώ": 467,
      "Ё": 468,
      "Ђ": 469,
      "Ѓ": 470,
      "Є": 471,
      "Ѕ": 472,
      "І": 473,
      "Ї": 474,
      "Ј": 475,
      "Љ": 476,
      "Њ": 477,
      "Ћ": 478,
      "Ќ": 479,
      "Ў": 480,
      "Џ": 481,
      "А": 482,
      "Б": 483,
      "В": 484,
      "Г": 485,
      "Д": 486,
      "Е": 487,
      "Ж": 488,
      "З": 489,
      "И": 490,
      "Й": 491,
      "К": 492,
      "Л": 493,
      "М": 494,
      "Н": 495,
      "О": 496,
      "П": 497,
      "Р": 498,
      "С": 499,
      "Т": 500,
      "У": 501,
      "Ф": 502,
      "Х": 503,
      "Ц": 504,
      "Ч": 505,
      "Ш": 506,
      "Щ": 507,
      "Ъ": 508,
      "Ы": 509,
      "Ь": 510,
      "Э": 511,
      "Ю": 512,
      "Я": 513,
      "а": 514,
      "б": 515,
      "в": 516,
      "г": 517,
      "д": 518,
      "е": 519,
      "ж": 520,
      "з": 521,
      "и": 522,
      "й": 523,
      "к": 524,
      "л": 525,
      "м": 526,
      "н": 527,
      "о": 528,
      "п": 529,
      "р": 530,
      "с": 531,
      "т": 532,
      "у": 533,
      "ф": 534,
      "х": 535,
      "ц": 536,
      "ч": 537,
      "ш": 538,
      "щ": 539,
      "ъ": 540,
      "ы": 541,
      "ь": 542,
      "э": 543,
      "ю": 544,
      "я": 545,
      "ё": 546,
      "ђ": 547,
      "ѓ": 548,
      "є": 549,
      "ѕ": 550,
      "і": 551,
      "ї": 552,
      "ј": 553,
      "љ": 554,
      "њ": 555,
      "ћ": 556,
      "ќ": 557,
      "ў": 558,
      "џ": 559,
      "Ґ": 560,
      "ґ": 561,
      "ғ": 562,
      "ҙ": 563,
      "қ": 564,
      "Ҡ": 565,
      "ҡ": 566,
      "ң": 567,
      "ү": 568,
      "ұ": 569,
      "Ҳ": 570,
      "ҳ": 571,
      "һ": 572,
      "ә": 573,
      "ө": 574,
      "ְ": 575,
      "ֲ": 576,
      "ֳ": 577,
      "ִ": 578,
      "ֶ": 579,
      "ַ": 580,
      "ָ": 581,
      "ֹ": 582,
      "ּ": 583,
      "ֿ": 584,
      "ׁ": 585,
      "א": 586,
      "ב": 587,
      "ג": 588,
      "ד": 589,
      "ה": 590,
      "ו": 591,
      "ז": 592,
      "ח": 593,
      "ט": 594,
      "י": 595,
      "כ": 596,
      "ל": 597,
      "ם": 598,
      "מ": 599,
      "ן": 600,
      "נ": 601,
      "ס": 602,
      "ע": 603,
      "פ": 604,
      "ץ": 605,
      "צ": 606,
      "ק": 607,
      "ר": 608,
      "ש": 609,
      "ת": 610,
      "،": 611,
      "ؒ": 612,
      "؛": 613,
      "ء": 614,
      "آ": 615,
      "أ": 616,
      "ؤ": 617,
      "إ": 618,
      "ئ": 619,
      "ا": 620,
      "ب": 621,
      "ة": 622,
      "ت": 623,
      "ث": 624,
      "ج": 625,
      "ح": 626,
      "خ": 627,
      "د": 628,
      "ذ": 629,
      "ر": 630,
      "ز": 631,
      "س": 632,
      "ش": 633,
      "ص": 634,
      "ض": 635,
      "ط": 636,
      "ظ": 637,
      "ع": 638,
      "غ": 639,
      "ـ": 640,
      "ف": 641,
      "ق": 642,
      "ك": 643,
      "ل": 644,
      "م": 645,
      "ن": 646,
      "ه": 647,
      "و": 648,
      "ى": 649,
      "ي": 650,
      "ً": 651,
      "ٌ": 652,
      "َ": 653,
      "ُ": 654,
      "ِ": 655,
      "ّ": 656,
      "ْ": 657,
      "ٲ": 658,
      "ټ": 659,
      "پ": 660,
      "ځ": 661,
      "ڠ": 662,
      "ک": 663,
      "ڬ": 664,
      "ڭ": 665,
      "گ": 666,
      "ھ": 667,
      "ۆ": 668,
      "ۇ": 669,
      "ی": 670,
      "ې": 671,
      "۞": 672,
      "۩": 673,
      "۰": 674,
      "۱": 675,
      "۲": 676,
      "۳": 677,
      "۴": 678,
      "۵": 679,
      "۶": 680,
      "۷": 681,
      "۸": 682,
      "۹": 683,
      "ߖ": 684,
      "߮": 685,
      "ं": 686,
      "अ": 687,
      "आ": 688,
      "ई": 689,
      "उ": 690,
      "क": 691,
      "ग": 692,
      "च": 693,
      "छ": 694,
      "ज": 695,
      "ञ": 696,
      "ट": 697,
      "ड": 698,
      "ढ": 699,
      "ण": 700,
      "त": 701,
      "थ": 702,
      "द": 703,
      "ध": 704,
      "न": 705,
      "प": 706,
      "ब": 707,
      "भ": 708,
      "म": 709,
      "य": 710,
      "र": 711,
      "ल": 712,
      "व": 713,
      "श": 714,
      "स": 715,
      "ह": 716,
      "़": 717,
      "ा": 718,
      "ि": 719,
      "ी": 720,
      "ु": 721,
      "ृ": 722,
      "े": 723,
      "ॉ": 724,
      "ो": 725,
      "्": 726,
      "ॐ": 727,
      "ॡ": 728,
      "०": 729,
      "१": 730,
      "५": 731,
      "९": 732,
      "ং": 733,
      "ই": 734,
      "ক": 735,
      "গ": 736,
      "ঙ": 737,
      "চ": 738,
      "ট": 739,
      "ত": 740,
      "ন": 741,
      "প": 742,
      "ব": 743,
      "ম": 744,
      "য": 745,
      "র": 746,
      "ল": 747,
      "শ": 748,
      "হ": 749,
      "়": 750,
      "া": 751,
      "ি": 752,
      "ু": 753,
      "ো": 754,
      "্": 755,
      "ৰ": 756,
      "ਗ": 757,
      "ਚ": 758,
      "ਡ": 759,
      "ਹ": 760,
      "ੀ": 761,
      "੍": 762,
      "ੜ": 763,
      "ੰ": 764,
      "க": 765,
      "ச": 766,
      "ட": 767,
      "த": 768,
      "ன": 769,
      "ப": 770,
      "ம": 771,
      "ய": 772,
      "ர": 773,
      "ு": 774,
      "ூ": 775,
      "ெ": 776,
      "ை": 777,
      "ோ": 778,
      "்": 779,
      "ం": 780,
      "ఆ": 781,
      "ద": 782,
      "ధ": 783,
      "ప": 784,
      "ర": 785,
      "శ": 786,
      "ె": 787,
      "్": 788,
      "ౕ": 789,
      "ಐ": 790,
      "ಯ": 791,
      "ರ": 792,
      "ವ": 793,
      "ಶ": 794,
      "ಾ": 795,
      "ೆ": 796,
      "್": 797,
      "ೖ": 798,
      "ക": 799,
      "ദ": 800,
      "പ": 801,
      "ല": 802,
      "വ": 803,
      "ഷ": 804,
      "ീ": 805,
      "്": 806,
      "න": 807,
      "ම": 808,
      "ර": 809,
      "ව": 810,
      "හ": 811,
      "ු": 812,
      "ก": 813,
      "ข": 814,
      "ค": 815,
      "ฆ": 816,
      "ง": 817,
      "จ": 818,
      "ฉ": 819,
      "ช": 820,
      "ซ": 821,
      "ญ": 822,
      "ฎ": 823,
      "ฐ": 824,
      "ฒ": 825,
      "ณ": 826,
      "ด": 827,
      "ต": 828,
      "ถ": 829,
      "ท": 830,
      "ธ": 831,
      "น": 832,
      "บ": 833,
      "ป": 834,
      "ผ": 835,
      "ฝ": 836,
      "พ": 837,
      "ฟ": 838,
      "ภ": 839,
      "ม": 840,
      "ย": 841,
      "ร": 842,
      "ฤ": 843,
      "ล": 844,
      "ว": 845,
      "ศ": 846,
      "ษ": 847,
      "ส": 848,
      "ห": 849,
      "อ": 850,
      "ฮ": 851,
      "ฯ": 852,
      "ะ": 853,
      "ั": 854,
      "า": 855,
      "ำ": 856,
      "ิ": 857,
      "ี": 858,
      "ึ": 859,
      "ื": 860,
      "ุ": 861,
      "ู": 862,
      "฿": 863,
      "เ": 864,
      "แ": 865,
      "โ": 866,
      "ใ": 867,
      "ไ": 868,
      "ๆ": 869,
      "็": 870,
      "่": 871,
      "้": 872,
      "๊": 873,
      "์": 874,
      "๑": 875,
      "ຄ": 876,
      "ງ": 877,
      "ດ": 878,
      "ຖ": 879,
      "ນ": 880,
      "ມ": 881,
      "ວ": 882,
      "ັ": 883,
      "ຸ": 884,
      "་": 885,
      "ད": 886,
      "བ": 887,
      "ོ": 888,
      "ა": 889,
      "ბ": 890,
      "გ": 891,
      "დ": 892,
      "ე": 893,
      "ვ": 894,
      "თ": 895,
      "ი": 896,
      "კ": 897,
      "ლ": 898,
      "მ": 899,
      "ნ": 900,
      "ო": 901,
      "პ": 902,
      "რ": 903,
      "ს": 904,
      "ტ": 905,
      "უ": 906,
      "ქ": 907,
      "ღ": 908,
      "შ": 909,
      "ც": 910,
      "ხ": 911,
      "ህ": 912,
      "ሊ": 913,
      "ል": 914,
      "ሕ": 915,
      "መ": 916,
      "ም": 917,
      "ረ": 918,
      "ራ": 919,
      "ር": 920,
      "ሰ": 921,
      "ስ": 922,
      "ሻ": 923,
      "ቀ": 924,
      "ቐ": 925,
      "በ": 926,
      "ቢ": 927,
      "ባ": 928,
      "ተ": 929,
      "ት": 930,
      "ቶ": 931,
      "ን": 932,
      "አ": 933,
      "ኣ": 934,
      "ኤ": 935,
      "እ": 936,
      "ኦ": 937,
      "ክ": 938,
      "ዋ": 939,
      "ው": 940,
      "ዓ": 941,
      "የ": 942,
      "ይ": 943,
      "ዲ": 944,
      "ድ": 945,
      "ገ": 946,
      "ጨ": 947,
      "ጽ": 948,
      "ፈ": 949,
      "፣": 950,
      "ḍ": 951,
      "Ḥ": 952,
      "ḥ": 953,
      "ḫ": 954,
      "ḷ": 955,
      "ḿ": 956,
      "ṃ": 957,
      "ṅ": 958,
      "ṇ": 959,
      "ṉ": 960,
      "ṛ": 961,
      "ṣ": 962,
      "Ṭ": 963,
      "ṭ": 964,
      "Ṯ": 965,
      "ṳ": 966,
      "ẋ": 967,
      "ạ": 968,
      "ả": 969,
      "ấ": 970,
      "ầ": 971,
      "ẩ": 972,
      "ậ": 973,
      "ắ": 974,
      "Ẳ": 975,
      "ẵ": 976,
      "ẻ": 977,
      "ẽ": 978,
      "ế": 979,
      "ề": 980,
      "ể": 981,
      "ễ": 982,
      "ệ": 983,
      "ọ": 984,
      "ỏ": 985,
      "ố": 986,
      "ồ": 987,
      "ổ": 988,
      "ộ": 989,
      "ớ": 990,
      "ờ": 991,
      "ở": 992,
      "ợ": 993,
      "ụ": 994,
      "ủ": 995,
      "ứ": 996,
      "ừ": 997,
      "ử": 998,
      "ữ": 999,
      "ự": 1000,
      "ỳ": 1001,
      "ỹ": 1002,
      "ἀ": 1003,
      "ἄ": 1004,
      "ἅ": 1005,
      "ἔ": 1006,
      "Ἥ": 1007,
      "ἰ": 1008,
      "ὁ": 1009,
      "ὄ": 1010,
      "ά": 1011,
      "ὶ": 1012,
      "ὺ": 1013,
      "ῆ": 1014,
      "ῑ": 1015,
      "ῥ": 1016,
      "ῦ": 1017,
      "​": 1018,
      "‌": 1019,
      "‎": 1020,
      "‏": 1021,
      "‐": 1022,
      "‑": 1023,
      "‒": 1024,
      "–": 1025,
      "—": 1026,
      "―": 1027,
      "‘": 1028,
      "’": 1029,
      "‚": 1030,
      "‛": 1031,
      "“": 1032,
      "”": 1033,
      "„": 1034,
      "‟": 1035,
      "†": 1036,
      "‡": 1037,
      "•": 1038,
      "…": 1039,
      "‬": 1040,
      "‭": 1041,
      "‰": 1042,
      "′": 1043,
      "″": 1044,
      "‹": 1045,
      "›": 1046,
      "※": 1047,
      "‼": 1048,
      "⁄": 1049,
      "ⁿ": 1050,
      "₂": 1051,
      "₤": 1052,
      "₩": 1053,
      "₪": 1054,
      "€": 1055,
      "₴": 1056,
      "℃": 1057,
      "ℓ": 1058,
      "№": 1059,
      "™": 1060,
      "Ω": 1061,
      "⅛": 1062,
      "⅞": 1063,
      "Ⅱ": 1064,
      "←": 1065,
      "↑": 1066,
      "→": 1067,
      "↓": 1068,
      "↔": 1069,
      "⇒": 1070,
      "⇗": 1071,
      "⇢": 1072,
      "∀": 1073,
      "∈": 1074,
      "∑": 1075,
      "−": 1076,
      "∙": 1077,
      "√": 1078,
      "∞": 1079,
      "∫": 1080,
      "∴": 1081,
      "∶": 1082,
      "≈": 1083,
      "≠": 1084,
      "≤": 1085,
      "≥": 1086,
      "≪": 1087,
      "≫": 1088,
      "⋅": 1089,
      "⌃": 1090,
      "⌘": 1091,
      "①": 1092,
      "②": 1093,
      "③": 1094,
      "─": 1095,
      "│": 1096,
      "╚": 1097,
      "╞": 1098,
      "╩": 1099,
      "█": 1100,
      "░": 1101,
      "■": 1102,
      "□": 1103,
      "▪": 1104,
      "▲": 1105,
      "△": 1106,
      "▸": 1107,
      "►": 1108,
      "▼": 1109,
      "◆": 1110,
      "◇": 1111,
      "◈": 1112,
      "◊": 1113,
      "○": 1114,
      "◎": 1115,
      "●": 1116,
      "◙": 1117,
      "◦": 1118,
      "★": 1119,
      "☆": 1120,
      "☎": 1121,
      "☏": 1122,
      "☑": 1123,
      "☺": 1124,
      "☻": 1125,
      "☼": 1126,
      "♀": 1127,
      "♂": 1128,
      "♠": 1129,
      "♣": 1130,
      "♥": 1131,
      "♦": 1132,
      "♪": 1133,
      "♫": 1134,
      "✿": 1135,
      "➔": 1136,
      "➚": 1137,
      "➟": 1138,
      "➲": 1139,
      "Ⰶ": 1140,
      "ⲉ": 1141,
      "ⲟ": 1142,
      "Ⲡ": 1143,
      "ⲣ": 1144,
      "ⲩ": 1145,
      "、": 1146,
      "。": 1147,
      "々": 1148,
      "《": 1149,
      "》": 1150,
      "「": 1151,
      "」": 1152,
      "『": 1153,
      "』": 1154,
      "【": 1155,
      "】": 1156,
      "〔": 1157,
      "〕": 1158,
      "〜": 1159,
      "あ": 1160,
      "ぃ": 1161,
      "い": 1162,
      "う": 1163,
      "え": 1164,
      "お": 1165,
      "か": 1166,
      "が": 1167,
      "き": 1168,
      "ぎ": 1169,
      "く": 1170,
      "ぐ": 1171,
      "け": 1172,
      "げ": 1173,
      "こ": 1174,
      "ご": 1175,
      "さ": 1176,
      "ざ": 1177,
      "し": 1178,
      "じ": 1179,
      "す": 1180,
      "ず": 1181,
      "せ": 1182,
      "そ": 1183,
      "ぞ": 1184,
      "た": 1185,
      "だ": 1186,
      "ち": 1187,
      "ぢ": 1188,
      "っ": 1189,
      "つ": 1190,
      "づ": 1191,
      "て": 1192,
      "で": 1193,
      "と": 1194,
      "ど": 1195,
      "な": 1196,
      "に": 1197,
      "ね": 1198,
      "の": 1199,
      "は": 1200,
      "ば": 1201,
      "び": 1202,
      "ふ": 1203,
      "ぶ": 1204,
      "ぷ": 1205,
      "へ": 1206,
      "ま": 1207,
      "み": 1208,
      "む": 1209,
      "め": 1210,
      "も": 1211,
      "や": 1212,
      "ょ": 1213,
      "よ": 1214,
      "ら": 1215,
      "り": 1216,
      "る": 1217,
      "れ": 1218,
      "ろ": 1219,
      "わ": 1220,
      "を": 1221,
      "ん": 1222,
      "゛": 1223,
      "゜": 1224,
      "ア": 1225,
      "ィ": 1226,
      "イ": 1227,
      "ゥ": 1228,
      "ウ": 1229,
      "ェ": 1230,
      "エ": 1231,
      "オ": 1232,
      "カ": 1233,
      "キ": 1234,
      "ク": 1235,
      "グ": 1236,
      "ケ": 1237,
      "ゲ": 1238,
      "コ": 1239,
      "ゴ": 1240,
      "サ": 1241,
      "ザ": 1242,
      "シ": 1243,
      "ジ": 1244,
      "ス": 1245,
      "ズ": 1246,
      "セ": 1247,
      "ソ": 1248,
      "タ": 1249,
      "ダ": 1250,
      "チ": 1251,
      "ッ": 1252,
      "ツ": 1253,
      "テ": 1254,
      "デ": 1255,
      "ト": 1256,
      "ド": 1257,
      "ナ": 1258,
      "ニ": 1259,
      "ヌ": 1260,
      "ネ": 1261,
      "ハ": 1262,
      "バ": 1263,
      "パ": 1264,
      "ヒ": 1265,
      "ビ": 1266,
      "フ": 1267,
      "ブ": 1268,
      "プ": 1269,
      "ベ": 1270,
      "ペ": 1271,
      "ホ": 1272,
      "ボ": 1273,
      "マ": 1274,
      "ミ": 1275,
      "ム": 1276,
      "メ": 1277,
      "ュ": 1278,
      "ユ": 1279,
      "ヨ": 1280,
      "ラ": 1281,
      "リ": 1282,
      "ル": 1283,
      "レ": 1284,
      "ロ": 1285,
      "ワ": 1286,
      "ン": 1287,
      "・": 1288,
      "ー": 1289,
      "ㄅ": 1290,
      "ㄆ": 1291,
      "ㄇ": 1292,
      "ㄈ": 1293,
      "ㄤ": 1294,
      "ㄧ": 1295,
      "ㅓ": 1296,
      "ㅔ": 1297,
      "ㅕ": 1298,
      "ㅖ": 1299,
      "ㅡ": 1300,
      "ㅣ": 1301,
      "㎡": 1302,
      "䟩": 1303,
      "一": 1304,
      "七": 1305,
      "万": 1306,
      "三": 1307,
      "上": 1308,
      "下": 1309,
      "不": 1310,
      "丘": 1311,
      "东": 1312,
      "两": 1313,
      "丨": 1314,
      "个": 1315,
      "中": 1316,
      "丸": 1317,
      "丹": 1318,
      "为": 1319,
      "主": 1320,
      "丼": 1321,
      "丽": 1322,
      "举": 1323,
      "久": 1324,
      "义": 1325,
      "之": 1326,
      "乌": 1327,
      "乎": 1328,
      "乏": 1329,
      "乐": 1330,
      "乗": 1331,
      "乙": 1332,
      "九": 1333,
      "习": 1334,
      "书": 1335,
      "了": 1336,
      "事": 1337,
      "二": 1338,
      "于": 1339,
      "云": 1340,
      "互": 1341,
      "五": 1342,
      "井": 1343,
      "亚": 1344,
      "些": 1345,
      "亞": 1346,
      "交": 1347,
      "产": 1348,
      "亨": 1349,
      "京": 1350,
      "人": 1351,
      "什": 1352,
      "仁": 1353,
      "今": 1354,
      "从": 1355,
      "付": 1356,
      "代": 1357,
      "以": 1358,
      "仪": 1359,
      "仮": 1360,
      "仲": 1361,
      "件": 1362,
      "价": 1363,
      "伊": 1364,
      "伎": 1365,
      "伏": 1366,
      "休": 1367,
      "会": 1368,
      "伝": 1369,
      "伦": 1370,
      "伯": 1371,
      "伴": 1372,
      "伸": 1373,
      "但": 1374,
      "住": 1375,
      "佐": 1376,
      "佑": 1377,
      "体": 1378,
      "何": 1379,
      "佗": 1380,
      "余": 1381,
      "作": 1382,
      "你": 1383,
      "佰": 1384,
      "侍": 1385,
      "依": 1386,
      "便": 1387,
      "俊": 1388,
      "保": 1389,
      "信": 1390,
      "修": 1391,
      "倉": 1392,
      "倍": 1393,
      "倒": 1394,
      "做": 1395,
      "健": 1396,
      "储": 1397,
      "傷": 1398,
      "働": 1399,
      "像": 1400,
      "儀": 1401,
      "儉": 1402,
      "元": 1403,
      "光": 1404,
      "克": 1405,
      "免": 1406,
      "入": 1407,
      "全": 1408,
      "八": 1409,
      "公": 1410,
      "六": 1411,
      "共": 1412,
      "兵": 1413,
      "其": 1414,
      "内": 1415,
      "円": 1416,
      "册": 1417,
      "写": 1418,
      "冤": 1419,
      "决": 1420,
      "况": 1421,
      "凄": 1422,
      "几": 1423,
      "凶": 1424,
      "出": 1425,
      "函": 1426,
      "刀": 1427,
      "分": 1428,
      "切": 1429,
      "列": 1430,
      "刘": 1431,
      "则": 1432,
      "刚": 1433,
      "別": 1434,
      "刨": 1435,
      "利": 1436,
      "别": 1437,
      "到": 1438,
      "則": 1439,
      "前": 1440,
      "剑": 1441,
      "剣": 1442,
      "剥": 1443,
      "副": 1444,
      "創": 1445,
      "力": 1446,
      "功": 1447,
      "加": 1448,
      "务": 1449,
      "动": 1450,
      "助": 1451,
      "势": 1452,
      "動": 1453,
      "勢": 1454,
      "勧": 1455,
      "勿": 1456,
      "包": 1457,
      "化": 1458,
      "北": 1459,
      "匠": 1460,
      "匹": 1461,
      "区": 1462,
      "医": 1463,
      "匿": 1464,
      "區": 1465,
      "十": 1466,
      "千": 1467,
      "华": 1468,
      "卓": 1469,
      "单": 1470,
      "南": 1471,
      "博": 1472,
      "卡": 1473,
      "危": 1474,
      "却": 1475,
      "厂": 1476,
      "原": 1477,
      "去": 1478,
      "县": 1479,
      "参": 1480,
      "參": 1481,
      "及": 1482,
      "友": 1483,
      "反": 1484,
      "发": 1485,
      "取": 1486,
      "受": 1487,
      "变": 1488,
      "口": 1489,
      "只": 1490,
      "叫": 1491,
      "召": 1492,
      "可": 1493,
      "台": 1494,
      "史": 1495,
      "号": 1496,
      "司": 1497,
      "吃": 1498,
      "合": 1499,
      "吉": 1500,
      "吊": 1501,
      "同": 1502,
      "名": 1503,
      "后": 1504,
      "向": 1505,
      "吗": 1506,
      "君": 1507,
      "否": 1508,
      "吧": 1509,
      "听": 1510,
      "吳": 1511,
      "吴": 1512,
      "吸": 1513,
      "吹": 1514,
      "吾": 1515,
      "呀": 1516,
      "呆": 1517,
      "呉": 1518,
      "告": 1519,
      "呑": 1520,
      "员": 1521,
      "周": 1522,
      "味": 1523,
      "呼": 1524,
      "咆": 1525,
      "和": 1526,
      "咬": 1527,
      "哈": 1528,
      "員": 1529,
      "哮": 1530,
      "哲": 1531,
      "唐": 1532,
      "售": 1533,
      "唸": 1534,
      "商": 1535,
      "啤": 1536,
      "啦": 1537,
      "喀": 1538,
      "喜": 1539,
      "嗣": 1540,
      "嘉": 1541,
      "嘛": 1542,
      "器": 1543,
      "四": 1544,
      "回": 1545,
      "因": 1546,
      "団": 1547,
      "囧": 1548,
      "园": 1549,
      "固": 1550,
      "国": 1551,
      "图": 1552,
      "圆": 1553,
      "國": 1554,
      "圏": 1555,
      "土": 1556,
      "在": 1557,
      "地": 1558,
      "圳": 1559,
      "场": 1560,
      "坊": 1561,
      "坐": 1562,
      "垣": 1563,
      "城": 1564,
      "埔": 1565,
      "堂": 1566,
      "堆": 1567,
      "報": 1568,
      "場": 1569,
      "塔": 1570,
      "塾": 1571,
      "墟": 1572,
      "墩": 1573,
      "壊": 1574,
      "士": 1575,
      "壮": 1576,
      "売": 1577,
      "壳": 1578,
      "处": 1579,
      "変": 1580,
      "夏": 1581,
      "夕": 1582,
      "外": 1583,
      "多": 1584,
      "夢": 1585,
      "大": 1586,
      "天": 1587,
      "太": 1588,
      "央": 1589,
      "头": 1590,
      "夷": 1591,
      "夹": 1592,
      "奄": 1593,
      "奉": 1594,
      "套": 1595,
      "奘": 1596,
      "奥": 1597,
      "女": 1598,
      "好": 1599,
      "如": 1600,
      "妻": 1601,
      "始": 1602,
      "委": 1603,
      "娃": 1604,
      "娄": 1605,
      "娥": 1606,
      "娱": 1607,
      "婁": 1608,
      "媛": 1609,
      "子": 1610,
      "字": 1611,
      "存": 1612,
      "学": 1613,
      "孴": 1614,
      "宁": 1615,
      "宇": 1616,
      "安": 1617,
      "宋": 1618,
      "宗": 1619,
      "官": 1620,
      "定": 1621,
      "宜": 1622,
      "宝": 1623,
      "实": 1624,
      "実": 1625,
      "客": 1626,
      "宣": 1627,
      "宮": 1628,
      "宰": 1629,
      "家": 1630,
      "容": 1631,
      "宿": 1632,
      "富": 1633,
      "寤": 1634,
      "實": 1635,
      "寧": 1636,
      "寨": 1637,
      "寶": 1638,
      "寸": 1639,
      "对": 1640,
      "寺": 1641,
      "寿": 1642,
      "専": 1643,
      "将": 1644,
      "小": 1645,
      "少": 1646,
      "尔": 1647,
      "尘": 1648,
      "就": 1649,
      "尾": 1650,
      "局": 1651,
      "屄": 1652,
      "居": 1653,
      "屈": 1654,
      "届": 1655,
      "屋": 1656,
      "屏": 1657,
      "属": 1658,
      "山": 1659,
      "屿": 1660,
      "岐": 1661,
      "岛": 1662,
      "岩": 1663,
      "岭": 1664,
      "岷": 1665,
      "島": 1666,
      "崎": 1667,
      "崔": 1668,
      "崩": 1669,
      "嵥": 1670,
      "嶼": 1671,
      "川": 1672,
      "州": 1673,
      "工": 1674,
      "巧": 1675,
      "巨": 1676,
      "已": 1677,
      "巴": 1678,
      "巻": 1679,
      "市": 1680,
      "布": 1681,
      "师": 1682,
      "希": 1683,
      "帝": 1684,
      "師": 1685,
      "席": 1686,
      "帯": 1687,
      "常": 1688,
      "幡": 1689,
      "干": 1690,
      "平": 1691,
      "年": 1692,
      "幸": 1693,
      "幹": 1694,
      "广": 1695,
      "庁": 1696,
      "広": 1697,
      "庄": 1698,
      "庆": 1699,
      "应": 1700,
      "底": 1701,
      "庚": 1702,
      "府": 1703,
      "度": 1704,
      "座": 1705,
      "庫": 1706,
      "康": 1707,
      "建": 1708,
      "开": 1709,
      "弁": 1710,
      "弄": 1711,
      "式": 1712,
      "弓": 1713,
      "引": 1714,
      "张": 1715,
      "弦": 1716,
      "張": 1717,
      "当": 1718,
      "形": 1719,
      "彩": 1720,
      "彭": 1721,
      "彰": 1722,
      "影": 1723,
      "役": 1724,
      "彻": 1725,
      "征": 1726,
      "律": 1727,
      "後": 1728,
      "徒": 1729,
      "得": 1730,
      "御": 1731,
      "微": 1732,
      "徳": 1733,
      "德": 1734,
      "徹": 1735,
      "徽": 1736,
      "心": 1737,
      "必": 1738,
      "忆": 1739,
      "忍": 1740,
      "志": 1741,
      "応": 1742,
      "念": 1743,
      "态": 1744,
      "怒": 1745,
      "思": 1746,
      "怡": 1747,
      "急": 1748,
      "性": 1749,
      "恩": 1750,
      "恵": 1751,
      "悟": 1752,
      "悠": 1753,
      "您": 1754,
      "悩": 1755,
      "悪": 1756,
      "情": 1757,
      "惑": 1758,
      "惧": 1759,
      "惯": 1760,
      "想": 1761,
      "意": 1762,
      "愛": 1763,
      "慈": 1764,
      "慢": 1765,
      "慣": 1766,
      "憾": 1767,
      "成": 1768,
      "我": 1769,
      "戴": 1770,
      "戶": 1771,
      "户": 1772,
      "戸": 1773,
      "房": 1774,
      "所": 1775,
      "扈": 1776,
      "手": 1777,
      "才": 1778,
      "打": 1779,
      "找": 1780,
      "承": 1781,
      "技": 1782,
      "投": 1783,
      "折": 1784,
      "抜": 1785,
      "报": 1786,
      "押": 1787,
      "担": 1788,
      "拉": 1789,
      "拓": 1790,
      "择": 1791,
      "括": 1792,
      "拼": 1793,
      "拿": 1794,
      "持": 1795,
      "挂": 1796,
      "指": 1797,
      "挡": 1798,
      "振": 1799,
      "损": 1800,
      "掉": 1801,
      "排": 1802,
      "探": 1803,
      "接": 1804,
      "控": 1805,
      "掻": 1806,
      "揃": 1807,
      "提": 1808,
      "換": 1809,
      "握": 1810,
      "援": 1811,
      "搅": 1812,
      "搞": 1813,
      "携": 1814,
      "摂": 1815,
      "摇": 1816,
      "摩": 1817,
      "撮": 1818,
      "操": 1819,
      "支": 1820,
      "收": 1821,
      "放": 1822,
      "政": 1823,
      "故": 1824,
      "敏": 1825,
      "救": 1826,
      "教": 1827,
      "散": 1828,
      "敦": 1829,
      "数": 1830,
      "整": 1831,
      "文": 1832,
      "斗": 1833,
      "料": 1834,
      "新": 1835,
      "方": 1836,
      "施": 1837,
      "旅": 1838,
      "族": 1839,
      "无": 1840,
      "日": 1841,
      "旧": 1842,
      "旨": 1843,
      "时": 1844,
      "昇": 1845,
      "明": 1846,
      "星": 1847,
      "春": 1848,
      "是": 1849,
      "显": 1850,
      "晏": 1851,
      "晨": 1852,
      "普": 1853,
      "景": 1854,
      "智": 1855,
      "暂": 1856,
      "暫": 1857,
      "暴": 1858,
      "曌": 1859,
      "曝": 1860,
      "更": 1861,
      "書": 1862,
      "最": 1863,
      "會": 1864,
      "月": 1865,
      "有": 1866,
      "望": 1867,
      "朝": 1868,
      "木": 1869,
      "本": 1870,
      "札": 1871,
      "术": 1872,
      "朱": 1873,
      "机": 1874,
      "李": 1875,
      "材": 1876,
      "村": 1877,
      "条": 1878,
      "来": 1879,
      "杭": 1880,
      "東": 1881,
      "松": 1882,
      "板": 1883,
      "林": 1884,
      "果": 1885,
      "架": 1886,
      "染": 1887,
      "柔": 1888,
      "查": 1889,
      "柱": 1890,
      "柴": 1891,
      "树": 1892,
      "校": 1893,
      "株": 1894,
      "根": 1895,
      "桂": 1896,
      "桃": 1897,
      "框": 1898,
      "桓": 1899,
      "梅": 1900,
      "梨": 1901,
      "检": 1902,
      "森": 1903,
      "椅": 1904,
      "植": 1905,
      "検": 1906,
      "楠": 1907,
      "業": 1908,
      "極": 1909,
      "楼": 1910,
      "楽": 1911,
      "標": 1912,
      "模": 1913,
      "横": 1914,
      "橿": 1915,
      "檀": 1916,
      "次": 1917,
      "欢": 1918,
      "款": 1919,
      "歌": 1920,
      "止": 1921,
      "正": 1922,
      "此": 1923,
      "步": 1924,
      "武": 1925,
      "歩": 1926,
      "歳": 1927,
      "死": 1928,
      "殊": 1929,
      "殷": 1930,
      "殿": 1931,
      "毁": 1932,
      "比": 1933,
      "毛": 1934,
      "氏": 1935,
      "民": 1936,
      "气": 1937,
      "気": 1938,
      "氣": 1939,
      "水": 1940,
      "永": 1941,
      "汇": 1942,
      "汉": 1943,
      "汕": 1944,
      "江": 1945,
      "汤": 1946,
      "汴": 1947,
      "決": 1948,
      "沈": 1949,
      "沙": 1950,
      "沛": 1951,
      "没": 1952,
      "沪": 1953,
      "沱": 1954,
      "河": 1955,
      "油": 1956,
      "治": 1957,
      "況": 1958,
      "泉": 1959,
      "泊": 1960,
      "法": 1961,
      "波": 1962,
      "泥": 1963,
      "注": 1964,
      "泽": 1965,
      "洋": 1966,
      "洛": 1967,
      "洪": 1968,
      "活": 1969,
      "流": 1970,
      "浄": 1971,
      "测": 1972,
      "济": 1973,
      "浙": 1974,
      "浦": 1975,
      "海": 1976,
      "涂": 1977,
      "淫": 1978,
      "深": 1979,
      "淹": 1980,
      "清": 1981,
      "済": 1982,
      "渋": 1983,
      "温": 1984,
      "港": 1985,
      "渲": 1986,
      "游": 1987,
      "湖": 1988,
      "湾": 1989,
      "満": 1990,
      "溜": 1991,
      "溝": 1992,
      "溢": 1993,
      "溥": 1994,
      "溪": 1995,
      "溫": 1996,
      "滬": 1997,
      "漢": 1998,
      "漫": 1999,
      "潟": 2000,
      "潮": 2001,
      "澄": 2002,
      "澤": 2003,
      "濟": 2004,
      "火": 2005,
      "灯": 2006,
      "灰": 2007,
      "灾": 2008,
      "点": 2009,
      "為": 2010,
      "烦": 2011,
      "無": 2012,
      "然": 2013,
      "焼": 2014,
      "照": 2015,
      "煮": 2016,
      "熊": 2017,
      "熟": 2018,
      "熨": 2019,
      "爆": 2020,
      "爛": 2021,
      "爪": 2022,
      "爱": 2023,
      "父": 2024,
      "片": 2025,
      "版": 2026,
      "牌": 2027,
      "牙": 2028,
      "物": 2029,
      "特": 2030,
      "状": 2031,
      "狐": 2032,
      "狗": 2033,
      "独": 2034,
      "献": 2035,
      "玄": 2036,
      "率": 2037,
      "玉": 2038,
      "王": 2039,
      "现": 2040,
      "珠": 2041,
      "班": 2042,
      "球": 2043,
      "理": 2044,
      "琢": 2045,
      "瑠": 2046,
      "瑩": 2047,
      "璃": 2048,
      "璐": 2049,
      "瓶": 2050,
      "甜": 2051,
      "生": 2052,
      "用": 2053,
      "田": 2054,
      "甲": 2055,
      "申": 2056,
      "电": 2057,
      "男": 2058,
      "甸": 2059,
      "町": 2060,
      "画": 2061,
      "留": 2062,
      "畢": 2063,
      "略": 2064,
      "畿": 2065,
      "疆": 2066,
      "疑": 2067,
      "疗": 2068,
      "疫": 2069,
      "痛": 2070,
      "痴": 2071,
      "癌": 2072,
      "白": 2073,
      "百": 2074,
      "的": 2075,
      "皇": 2076,
      "皮": 2077,
      "益": 2078,
      "盗": 2079,
      "盛": 2080,
      "目": 2081,
      "直": 2082,
      "相": 2083,
      "省": 2084,
      "看": 2085,
      "県": 2086,
      "真": 2087,
      "眩": 2088,
      "眼": 2089,
      "着": 2090,
      "睦": 2091,
      "瞎": 2092,
      "矢": 2093,
      "知": 2094,
      "石": 2095,
      "码": 2096,
      "砂": 2097,
      "确": 2098,
      "確": 2099,
      "磨": 2100,
      "礱": 2101,
      "示": 2102,
      "礼": 2103,
      "社": 2104,
      "祝": 2105,
      "神": 2106,
      "票": 2107,
      "祸": 2108,
      "祿": 2109,
      "禅": 2110,
      "福": 2111,
      "禪": 2112,
      "秀": 2113,
      "秉": 2114,
      "秋": 2115,
      "种": 2116,
      "科": 2117,
      "秦": 2118,
      "积": 2119,
      "称": 2120,
      "移": 2121,
      "程": 2122,
      "稱": 2123,
      "稼": 2124,
      "空": 2125,
      "立": 2126,
      "站": 2127,
      "竞": 2128,
      "章": 2129,
      "端": 2130,
      "競": 2131,
      "竹": 2132,
      "笠": 2133,
      "第": 2134,
      "筆": 2135,
      "答": 2136,
      "简": 2137,
      "箕": 2138,
      "管": 2139,
      "箱": 2140,
      "米": 2141,
      "系": 2142,
      "紂": 2143,
      "紅": 2144,
      "納": 2145,
      "純": 2146,
      "級": 2147,
      "素": 2148,
      "索": 2149,
      "紧": 2150,
      "終": 2151,
      "経": 2152,
      "結": 2153,
      "統": 2154,
      "經": 2155,
      "続": 2156,
      "綺": 2157,
      "総": 2158,
      "線": 2159,
      "縮": 2160,
      "繁": 2161,
      "織": 2162,
      "约": 2163,
      "级": 2164,
      "纸": 2165,
      "纹": 2166,
      "纽": 2167,
      "线": 2168,
      "细": 2169,
      "经": 2170,
      "绞": 2171,
      "统": 2172,
      "维": 2173,
      "网": 2174,
      "罗": 2175,
      "罪": 2176,
      "置": 2177,
      "羅": 2178,
      "美": 2179,
      "群": 2180,
      "義": 2181,
      "羲": 2182,
      "羽": 2183,
      "翁": 2184,
      "翠": 2185,
      "耀": 2186,
      "老": 2187,
      "考": 2188,
      "者": 2189,
      "而": 2190,
      "耳": 2191,
      "耶": 2192,
      "联": 2193,
      "育": 2194,
      "背": 2195,
      "胜": 2196,
      "胞": 2197,
      "胡": 2198,
      "能": 2199,
      "脱": 2200,
      "腹": 2201,
      "腺": 2202,
      "膚": 2203,
      "臂": 2204,
      "臈": 2205,
      "臓": 2206,
      "臘": 2207,
      "臣": 2208,
      "臧": 2209,
      "臨": 2210,
      "自": 2211,
      "至": 2212,
      "致": 2213,
      "臺": 2214,
      "舁": 2215,
      "舅": 2216,
      "舊": 2217,
      "舍": 2218,
      "舐": 2219,
      "舖": 2220,
      "舞": 2221,
      "舣": 2222,
      "舩": 2223,
      "航": 2224,
      "舫": 2225,
      "良": 2226,
      "色": 2227,
      "艳": 2228,
      "节": 2229,
      "芝": 2230,
      "花": 2231,
      "苏": 2232,
      "苑": 2233,
      "若": 2234,
      "英": 2235,
      "茂": 2236,
      "茜": 2237,
      "茨": 2238,
      "茶": 2239,
      "荣": 2240,
      "莞": 2241,
      "莹": 2242,
      "菜": 2243,
      "華": 2244,
      "菱": 2245,
      "萬": 2246,
      "葉": 2247,
      "著": 2248,
      "蒋": 2249,
      "蒸": 2250,
      "蔓": 2251,
      "蔚": 2252,
      "藏": 2253,
      "藤": 2254,
      "蘇": 2255,
      "虑": 2256,
      "蛋": 2257,
      "蜀": 2258,
      "蝦": 2259,
      "螨": 2260,
      "螳": 2261,
      "血": 2262,
      "行": 2263,
      "術": 2264,
      "街": 2265,
      "表": 2266,
      "裂": 2267,
      "裕": 2268,
      "製": 2269,
      "西": 2270,
      "要": 2271,
      "見": 2272,
      "覧": 2273,
      "親": 2274,
      "覺": 2275,
      "见": 2276,
      "视": 2277,
      "觉": 2278,
      "角": 2279,
      "解": 2280,
      "言": 2281,
      "訓": 2282,
      "記": 2283,
      "設": 2284,
      "試": 2285,
      "詩": 2286,
      "話": 2287,
      "語": 2288,
      "說": 2289,
      "読": 2290,
      "談": 2291,
      "請": 2292,
      "諸": 2293,
      "謑": 2294,
      "證": 2295,
      "计": 2296,
      "讣": 2297,
      "讯": 2298,
      "记": 2299,
      "讲": 2300,
      "许": 2301,
      "设": 2302,
      "证": 2303,
      "识": 2304,
      "试": 2305,
      "诘": 2306,
      "话": 2307,
      "该": 2308,
      "语": 2309,
      "请": 2310,
      "调": 2311,
      "谢": 2312,
      "谷": 2313,
      "豆": 2314,
      "豊": 2315,
      "貌": 2316,
      "販": 2317,
      "貮": 2318,
      "賀": 2319,
      "資": 2320,
      "賢": 2321,
      "贞": 2322,
      "负": 2323,
      "贡": 2324,
      "贤": 2325,
      "货": 2326,
      "质": 2327,
      "贱": 2328,
      "贳": 2329,
      "资": 2330,
      "赌": 2331,
      "赛": 2332,
      "赤": 2333,
      "赵": 2334,
      "赶": 2335,
      "起": 2336,
      "超": 2337,
      "越": 2338,
      "趙": 2339,
      "足": 2340,
      "跋": 2341,
      "跨": 2342,
      "路": 2343,
      "踌": 2344,
      "躇": 2345,
      "躍": 2346,
      "身": 2347,
      "軍": 2348,
      "転": 2349,
      "輪": 2350,
      "车": 2351,
      "转": 2352,
      "轮": 2353,
      "载": 2354,
      "较": 2355,
      "辛": 2356,
      "辞": 2357,
      "辱": 2358,
      "込": 2359,
      "过": 2360,
      "迎": 2361,
      "近": 2362,
      "返": 2363,
      "这": 2364,
      "进": 2365,
      "连": 2366,
      "迷": 2367,
      "送": 2368,
      "逃": 2369,
      "选": 2370,
      "途": 2371,
      "通": 2372,
      "逸": 2373,
      "遇": 2374,
      "道": 2375,
      "達": 2376,
      "遗": 2377,
      "遝": 2378,
      "遣": 2379,
      "遪": 2380,
      "遭": 2381,
      "遲": 2382,
      "遽": 2383,
      "那": 2384,
      "邱": 2385,
      "郎": 2386,
      "郑": 2387,
      "郝": 2388,
      "郡": 2389,
      "部": 2390,
      "郷": 2391,
      "都": 2392,
      "鄂": 2393,
      "鄭": 2394,
      "酉": 2395,
      "配": 2396,
      "酒": 2397,
      "采": 2398,
      "釉": 2399,
      "里": 2400,
      "重": 2401,
      "野": 2402,
      "量": 2403,
      "金": 2404,
      "鈴": 2405,
      "銀": 2406,
      "鋍": 2407,
      "鋑": 2408,
      "鋒": 2409,
      "鋓": 2410,
      "鋖": 2411,
      "鋘": 2412,
      "鋜": 2413,
      "鋝": 2414,
      "鋞": 2415,
      "鋟": 2416,
      "鐵": 2417,
      "针": 2418,
      "钓": 2419,
      "钢": 2420,
      "钦": 2421,
      "钧": 2422,
      "钱": 2423,
      "铭": 2424,
      "银": 2425,
      "锈": 2426,
      "锋": 2427,
      "键": 2428,
      "镜": 2429,
      "長": 2430,
      "門": 2431,
      "開": 2432,
      "間": 2433,
      "関": 2434,
      "閣": 2435,
      "閩": 2436,
      "门": 2437,
      "问": 2438,
      "间": 2439,
      "闵": 2440,
      "闻": 2441,
      "闽": 2442,
      "阜": 2443,
      "阪": 2444,
      "防": 2445,
      "阳": 2446,
      "阿": 2447,
      "陀": 2448,
      "际": 2449,
      "陈": 2450,
      "降": 2451,
      "限": 2452,
      "除": 2453,
      "陳": 2454,
      "陵": 2455,
      "陶": 2456,
      "隆": 2457,
      "際": 2458,
      "难": 2459,
      "雄": 2460,
      "雅": 2461,
      "集": 2462,
      "雛": 2463,
      "雪": 2464,
      "雲": 2465,
      "雷": 2466,
      "電": 2467,
      "青": 2468,
      "静": 2469,
      "非": 2470,
      "面": 2471,
      "革": 2472,
      "靳": 2473,
      "音": 2474,
      "項": 2475,
      "須": 2476,
      "頑": 2477,
      "頭": 2478,
      "顗": 2479,
      "页": 2480,
      "顶": 2481,
      "顾": 2482,
      "预": 2483,
      "颐": 2484,
      "题": 2485,
      "颜": 2486,
      "風": 2487,
      "风": 2488,
      "飛": 2489,
      "飞": 2490,
      "食": 2491,
      "飯": 2492,
      "飼": 2493,
      "館": 2494,
      "饮": 2495,
      "首": 2496,
      "香": 2497,
      "馬": 2498,
      "駄": 2499,
      "駅": 2500,
      "験": 2501,
      "騜": 2502,
      "验": 2503,
      "髄": 2504,
      "體": 2505,
      "高": 2506,
      "鬼": 2507,
      "魔": 2508,
      "鰀": 2509,
      "鰃": 2510,
      "鰄": 2511,
      "鰈": 2512,
      "鰊": 2513,
      "鰎": 2514,
      "鱼": 2515,
      "鲁": 2516,
      "鲞": 2517,
      "鳳": 2518,
      "鴻": 2519,
      "鵜": 2520,
      "鹈": 2521,
      "鹤": 2522,
      "鹿": 2523,
      "麗": 2524,
      "麩": 2525,
      "麺": 2526,
      "黃": 2527,
      "黄": 2528,
      "黒": 2529,
      "黚": 2530,
      "黡": 2531,
      "黨": 2532,
      "黮": 2533,
      "黵": 2534,
      "黷": 2535,
      "鼻": 2536,
      "齡": 2537,
      "龍": 2538,
      "龙": 2539,
      "검": 2540,
      "고": 2541,
      "구": 2542,
      "국": 2543,
      "군": 2544,
      "김": 2545,
      "뀌": 2546,
      "나": 2547,
      "널": 2548,
      "녀": 2549,
      "년": 2550,
      "누": 2551,
      "는": 2552,
      "니": 2553,
      "님": 2554,
      "다": 2555,
      "단": 2556,
      "당": 2557,
      "대": 2558,
      "돌": 2559,
      "드": 2560,
      "로": 2561,
      "루": 2562,
      "류": 2563,
      "르": 2564,
      "마": 2565,
      "막": 2566,
      "맨": 2567,
      "문": 2568,
      "바": 2569,
      "박": 2570,
      "반": 2571,
      "번": 2572,
      "법": 2573,
      "베": 2574,
      "별": 2575,
      "빛": 2576,
      "사": 2577,
      "서": 2578,
      "성": 2579,
      "세": 2580,
      "셀": 2581,
      "셜": 2582,
      "소": 2583,
      "스": 2584,
      "습": 2585,
      "시": 2586,
      "신": 2587,
      "어": 2588,
      "었": 2589,
      "에": 2590,
      "엘": 2591,
      "영": 2592,
      "왕": 2593,
      "요": 2594,
      "웅": 2595,
      "월": 2596,
      "유": 2597,
      "으": 2598,
      "이": 2599,
      "인": 2600,
      "일": 2601,
      "자": 2602,
      "작": 2603,
      "적": 2604,
      "조": 2605,
      "존": 2606,
      "주": 2607,
      "지": 2608,
      "짝": 2609,
      "창": 2610,
      "천": 2611,
      "체": 2612,
      "추": 2613,
      "층": 2614,
      "치": 2615,
      "킨": 2616,
      "터": 2617,
      "톨": 2618,
      "티": 2619,
      "폐": 2620,
      "한": 2621,
      "향": 2622,
      "호": 2623,
      "환": 2624,
      "회": 2625,
      "훈": 2626,
      "": 2627,
      "": 2628,
      "": 2629,
      "": 2630,
      "": 2631,
      "": 2632,
      "": 2633,
      "": 2634,
      "": 2635,
      "": 2636,
      "": 2637,
      "": 2638,
      "": 2639,
      "": 2640,
      "": 2641,
      "": 2642,
      "": 2643,
      "": 2644,
      "": 2645,
      "": 2646,
      "": 2647,
      "": 2648,
      "ﬁ": 2649,
      "ﬂ": 2650,
      "ﷲ": 2651,
      "︰": 2652,
      "﻿": 2653,
      "！": 2654,
      "（": 2655,
      "）": 2656,
      "＊": 2657,
      "，": 2658,
      "－": 2659,
      "．": 2660,
      "：": 2661,
      "；": 2662,
      "？": 2663,
      "ｔ": 2664,
      "､": 2665,
      "ｲ": 2666,
      "ｿ": 2667,
      "ﾜ": 2668,
      "ﾟ": 2669,
      "￡": 2670,
      "￥": 2671,
      "￼": 2672,
      "�": 2673,
      "𐌰": 2674,
      "𐌴": 2675,
      "𐌸": 2676,
      "𐌼": 2677,
      "𐌽": 2678,
      "𐍃": 2679,
      "𐍉": 2680,
      "𠐄": 2681,
      "𢥲": 2682,
      "𧵮": 2683,
      "𲠄": 2684,
      "𲠤": 2685,
      "򮬩": 2686,
      "򮮥": 2687,
      "򲤥": 2688,
      "򲵮": 2689,
      "򴩧": 2690,
      "en": 2691,
      "er": 2692,
      "ch": 2693,
      "ei": 2694,
      "un": 2695,
      "ie": 2696,
      "st": 2697,
      "in": 2698,
      "der": 2699,
      "an": 2700,
      "es": 2701,
      "ich": 2702,
      "on": 2703,
      "die": 2704,
      "ein": 2705,
      "##": 2706,
      "sch": 2707,
      "und": 2708,
      "ung": 2709,
      "au": 2710,
      "ge": 2711,
      "den": 2712,
      "al": 2713,
      "te": 2714,
      "ti": 2715,
      "or": 2716,
      "ar": 2717,
      "as": 2718,
      "ten": 2719,
      "zu": 2720,
      "it": 2721,
      "de": 2722,
      "gen": 2723,
      "hr": 2724,
      "el": 2725,
      "ur": 2726,
      "AT": 2727,
      "ir": 2728,
      "ter": 2729,
      "lich": 2730,
      "le": 2731,
      "ol": 2732,
      "be": 2733,
      "se": 2734,
      "at": 2735,
      "ür": 2736,
      "men": 2737,
      "ber": 2738,
      "das": 2739,
      "eit": 2740,
      "is": 2741,
      "ra": 2742,
      "ist": 2743,
      "ver": 2744,
      "eine": 2745,
      "im": 2746,
      "om": 2747,
      "von": 2748,
      "auf": 2749,
      "isch": 2750,
      "wir": 2751,
      "ier": 2752,
      "icht": 2753,
      "mit": 2754,
      "ben": 2755,
      "us": 2756,
      "ro": 2757,
      "re": 2758,
      "für": 2759,
      "tion": 2760,
      "tz": 2761,
      "sen": 2762,
      "-##": 2763,
      "##-##": 2764,
      "ach": 2765,
      "des": 2766,
      "am": 2767,
      "ne": 2768,
      "wer": 2769,
      "ig": 2770,
      "ck": 2771,
      "aus": 2772,
      "um": 2773,
      "Ver": 2774,
      "il": 2775,
      "sp": 2776,
      "ser": 2777,
      "ft": 2778,
      "len": 2779,
      "ungen": 2780,
      "nen": 2781,
      "dem": 2782,
      "Die": 2783,
      "eich": 2784,
      "In": 2785,
      "sich": 2786,
      "si": 2787,
      "ent": 2788,
      "da": 2789,
      "and": 2790,
      "op": 2791,
      "Sie": 2792,
      "nicht": 2793,
      "ste": 2794,
      "wei": 2795,
      "ot": 2796,
      "la": 2797,
      "ff": 2798,
      "ischen": 2799,
      "über": 2800,
      "werden": 2801,
      "ind": 2802,
      "kt": 2803,
      "än": 2804,
      "auch": 2805,
      "bei": 2806,
      "so": 2807,
      "St": 2808,
      "dass": 2809,
      "ges": 2810,
      "An": 2811,
      "Be": 2812,
      "he": 2813,
      "ha": 2814,
      "vor": 2815,
      "wie": 2816,
      "Re": 2817,
      "Un": 2818,
      "ah": 2819,
      "ation": 2820,
      "ahr": 2821,
      "ann": 2822,
      "me": 2823,
      "ien": 2824,
      "lie": 2825,
      "ger": 2826,
      "ab": 2827,
      "qu": 2828,
      "hal": 2829,
      "urop": 2830,
      "gt": 2831,
      "rei": 2832,
      "lt": 2833,
      "Sch": 2834,
      "hen": 2835,
      "och": 2836,
      "einer": 2837,
      "ungs": 2838,
      "sind": 2839,
      "scha": 2840,
      "ri": 2841,
      "tel": 2842,
      "ut": 2843,
      "sten": 2844,
      "rä": 2845,
      "als": 2846,
      "wen": 2847,
      "wird": 2848,
      "einen": 2849,
      "fü": 2850,
      "for": 2851,
      "iel": 2852,
      "stel": 2853,
      "Pro": 2854,
      "em": 2855,
      "oder": 2856,
      "err": 2857,
      "ön": 2858,
      "je": 2859,
      "Er": 2860,
      "Ein": 2861,
      "all": 2862,
      "imm": 2863,
      "hat": 2864,
      "gr": 2865,
      "00": 2866,
      "En": 2867,
      "os": 2868,
      "ern": 2869,
      "omm": 2870,
      "ts": 2871,
      "diese": 2872,
      "zur": 2873,
      "schaft": 2874,
      "oll": 2875,
      "Aus": 2876,
      "Europ": 2877,
      "unter": 2878,
      "haben": 2879,
      "quot": 2880,
      "et": 2881,
      "sie": 2882,
      "Au": 2883,
      "urch": 2884,
      "Mit": 2885,
      "bes": 2886,
      "li": 2887,
      "ru": 2888,
      "Ber": 2889,
      "war": 2890,
      "tig": 2891,
      "lichen": 2892,
      "ihr": 2893,
      "sion": 2894,
      "kön": 2895,
      "ische": 2896,
      "her": 2897,
      "Ar": 2898,
      "gan": 2899,
      "nach": 2900,
      "mö": 2901,
      "Wir": 2902,
      "tet": 2903,
      "ort": 2904,
      "unser": 2905,
      "ing": 2906,
      "schen": 2907,
      "chen": 2908,
      "durch": 2909,
      "oh": 2910,
      "Ge": 2911,
      "ken": 2912,
      "di": 2913,
      "Das": 2914,
      "heit": 2915,
      "dar": 2916,
      "keit": 2917,
      "lung": 2918,
      "är": 2919,
      "einem": 2920,
      "ion": 2921,
      "kann": 2922,
      "wur": 2923,
      "Par": 2924,
      "uss": 2925,
      "iti": 2926,
      "aten": 2927,
      "ander": 2928,
      "Komm": 2929,
      "ün": 2930,
      "Ich": 2931,
      "du": 2932,
      "können": 2933,
      "tiv": 2934,
      "ze": 2935,
      "dern": 2936,
      "hin": 2937,
      "liche": 2938,
      "ommen": 2939,
      "geb": 2940,
      "tei": 2941,
      "fe": 2942,
      "ht": 2943,
      "gl": 2944,
      "tra": 2945,
      "cht": 2946,
      "Jahr": 2947,
      "ran": 2948,
      "Kommis": 2949,
      "Herr": 2950,
      "Vor": 2951,
      "beit": 2952,
      "ment": 2953,
      "Sp": 2954,
      "ap": 2955,
      "lei": 2956,
      "zum": 2957,
      "Ab": 2958,
      "lan": 2959,
      "tw": 2960,
      "sta": 2961,
      "ieren": 2962,
      "ör": 2963,
      "fen": 2964,
      "ma": 2965,
      "che": 2966,
      "führ": 2967,
      "rie": 2968,
      "chte": 2969,
      "fin": 2970,
      "glich": 2971,
      "kl": 2972,
      "ück": 2973,
      "wä": 2974,
      "üs": 2975,
      "itä": 2976,
      "Europä": 2977,
      "eiten": 2978,
      "iert": 2979,
      "..": 2980,
      "uns": 2981,
      "tzt": 2982,
      "Ges": 2983,
      "ik": 2984,
      "ktion": 2985,
      "gem": 2986,
      "bar": 2987,
      "nur": 2988,
      "Unter": 2989,
      "dies": 2990,
      "ho": 2991,
      "zi": 2992,
      "neh": 2993,
      "Ihr": 2994,
      "man": 2995,
      "ffen": 2996,
      "br": 2997,
      "oliti": 2998,
      "Der": 2999,
      "alle": 3000,
      "neu": 3001,
      "Ma": 3002,
      "we": 3003,
      "ick": 3004,
      "ob": 3005,
      "Kon": 3006,
      "rau": 3007,
      "elt": 3008,
      "Ho": 3009,
      "noch": 3010,
      "lä": 3011,
      "was": 3012,
      "räsi": 3013,
      "bt": 3014,
      "ok": 3015,
      "räsiden": 3016,
      "kon": 3017,
      "ell": 3018,
      "dieser": 3019,
      "Es": 3020,
      "Kommission": 3021,
      "ul": 3022,
      "utz": 3023,
      "Al": 3024,
      "ak": 3025,
      "son": 3026,
      "ßen": 3027,
      "gel": 3028,
      "pro": 3029,
      "Gr": 3030,
      "nis": 3031,
      "ierung": 3032,
      "mehr": 3033,
      "daß": 3034,
      "fol": 3035,
      "og": 3036,
      "igen": 3037,
      "weiter": 3038,
      "ner": 3039,
      "sein": 3040,
      "immer": 3041,
      "sel": 3042,
      "zen": 3043,
      "räsident": 3044,
      "sa": 3045,
      "pf": 3046,
      "200": 3047,
      "rit": 3048,
      "wurde": 3049,
      "alen": 3050,
      "dig": 3051,
      "Zu": 3052,
      "sam": 3053,
      "Auf": 3054,
      "soll": 3055,
      "tern": 3056,
      "aber": 3057,
      "glie": 3058,
      "gesch": 3059,
      "ke": 3060,
      "gegen": 3061,
      "kommen": 3062,
      "Um": 3063,
      "müs": 3064,
      "ad": 3065,
      "han": 3066,
      "wenn": 3067,
      "zw": 3068,
      "tigen": 3069,
      "nah": 3070,
      "per": 3071,
      "form": 3072,
      "olle": 3073,
      "det": 3074,
      "eren": 3075,
      "fahr": 3076,
      "sehr": 3077,
      "bie": 3078,
      "müssen": 3079,
      "halten": 3080,
      "assen": 3081,
      "del": 3082,
      "eichen": 3083,
      "lin": 3084,
      "Fra": 3085,
      "nehmen": 3086,
      "ag": 3087,
      "Mitglie": 3088,
      "bis": 3089,
      "ic": 3090,
      "Präsident": 3091,
      "ler": 3092,
      "Parla": 3093,
      "ität": 3094,
      "Hotel": 3095,
      "ug": 3096,
      "ord": 3097,
      "ige": 3098,
      "eines": 3099,
      "stimm": 3100,
      "mer": 3101,
      "ale": 3102,
      "ute": 3103,
      "hnen": 3104,
      "Le": 3105,
      "diesem": 3106,
      "ahl": 3107,
      "Men": 3108,
      "gra": 3109,
      "ert": 3110,
      "We": 3111,
      "Union": 3112,
      "enn": 3113,
      "age": 3114,
      "tschaft": 3115,
      "anz": 3116,
      "hä": 3117,
      "Reg": 3118,
      "atz": 3119,
      "Arbeit": 3120,
      "setz": 3121,
      "De": 3122,
      "&#": 3123,
      "gro": 3124,
      "ess": 3125,
      "unden": 3126,
      "gew": 3127,
      "Europäischen": 3128,
      "sche": 3129,
      "kte": 3130,
      "stat": 3131,
      "schie": 3132,
      "gi": 3133,
      "geben": 3134,
      "rü": 3135,
      "bet": 3136,
      "dung": 3137,
      "onder": 3138,
      "19": 3139,
      "uß": 3140,
      "uch": 3141,
      "Mitglied": 3142,
      "hn": 3143,
      "omp": 3144,
      "möchte": 3145,
      "pp": 3146,
      "eigen": 3147,
      "Bes": 3148,
      "ationen": 3149,
      "stän": 3150,
      "Zeit": 3151,
      "tung": 3152,
      "yste": 3153,
      "Me": 3154,
      "Rat": 3155,
      "stü": 3156,
      "doch": 3157,
      "Ent": 3158,
      "stellen": 3159,
      "Über": 3160,
      "hier": 3161,
      "EU": 3162,
      "zie": 3163,
      "For": 3164,
      "Te": 3165,
      "wich": 3166,
      "Im": 3167,
      "So": 3168,
      "lo": 3169,
      "iz": 3170,
      "uropä": 3171,
      "land": 3172,
      "stehen": 3173,
      "ble": 3174,
      "Nach": 3175,
      "chn": 3176,
      "ass": 3177,
      "fä": 3178,
      "vom": 3179,
      "politi": 3180,
      "ve": 3181,
      "tige": 3182,
      "gibt": 3183,
      "net": 3184,
      "Mar": 3185,
      "trag": 3186,
      "Frau": 3187,
      "Se": 3188,
      "zwei": 3189,
      "ga": 3190,
      "end": 3191,
      "ster": 3192,
      "schlie": 3193,
      "ihre": 3194,
      "Bericht": 3195,
      "Menschen": 3196,
      "europä": 3197,
      "bereit": 3198,
      "sowie": 3199,
      "woh": 3200,
      "ins": 3201,
      "mal": 3202,
      "dieses": 3203,
      "zwischen": 3204,
      "Bei": 3205,
      "tre": 3206,
      "Ne": 3207,
      "änder": 3208,
      "twick": 3209,
      "stellt": 3210,
      "halb": 3211,
      "besonder": 3212,
      "sol": 3213,
      "ele": 3214,
      "Da": 3215,
      "teil": 3216,
      "Zus": 3217,
      "iele": 3218,
      "nung": 3219,
      "ften": 3220,
      "möglich": 3221,
      "bst": 3222,
      "los": 3223,
      "staaten": 3224,
      "Inter": 3225,
      "Entwick": 3226,
      "acht": 3227,
      "denen": 3228,
      "ange": 3229,
      "to": 3230,
      "ßer": 3231,
      "Parlament": 3232,
      "äch": 3233,
      "viel": 3234,
      "gram": 3235,
      "the": 3236,
      "hör": 3237,
      "arbei": 3238,
      "muss": 3239,
      "Grund": 3240,
      "wel": 3241,
      "forder": 3242,
      "Or": 3243,
      "gese": 3244,
      "gleich": 3245,
      "su": 3246,
      "unsere": 3247,
      "fer": 3248,
      "ast": 3249,
      "entr": 3250,
      "keine": 3251,
      "The": 3252,
      "Ihnen": 3253,
      "ammen": 3254,
      "finden": 3255,
      "ausge": 3256,
      "dr": 3257,
      "wür": 3258,
      "achen": 3259,
      "deut": 3260,
      "...": 3261,
      "Mitgliedstaaten": 3262,
      "ße": 3263,
      "rechen": 3264,
      "legen": 3265,
      "öff": 3266,
      "Produ": 3267,
      "apos": 3268,
      "20": 3269,
      "anderen": 3270,
      "eil": 3271,
      "stütz": 3272,
      "sicher": 3273,
      "ellen": 3274,
      "Europa": 3275,
      "art": 3276,
      "Zusammen": 3277,
      "ce": 3278,
      "ub": 3279,
      "steht": 3280,
      "währ": 3281,
      "besser": 3282,
      "issen": 3283,
      "pt": 3284,
      "keiten": 3285,
      "Her": 3286,
      "Fl": 3287,
      "Proble": 3288,
      "zei": 3289,
      "weise": 3290,
      "ös": 3291,
      "sicht": 3292,
      "wirk": 3293,
      "Wenn": 3294,
      "ischer": 3295,
      "Land": 3296,
      "gung": 3297,
      "ingen": 3298,
      "chä": 3299,
      "leich": 3300,
      "itu": 3301,
      "dann": 3302,
      "mittel": 3303,
      "Vorsch": 3304,
      "unkt": 3305,
      "spe": 3306,
      "gehen": 3307,
      "ystem": 3308,
      "gemein": 3309,
      "ank": 3310,
      "bil": 3311,
      "chten": 3312,
      "Bür": 3313,
      "Haus": 3314,
      "Welt": 3315,
      "fahren": 3316,
      "schei": 3317,
      "tr": 3318,
      "zeit": 3319,
      "Per": 3320,
      "nahmen": 3321,
      "ativ": 3322,
      "wo": 3323,
      "stand": 3324,
      "lick": 3325,
      "wieder": 3326,
      "ant": 3327,
      "ffe": 3328,
      "gie": 3329,
      "diesen": 3330,
      "ding": 3331,
      "allen": 3332,
      "Inform": 3333,
      "innen": 3334,
      "brauch": 3335,
      "fra": 3336,
      "damit": 3337,
      "äm": 3338,
      "Sta": 3339,
      "arbeit": 3340,
      "igkeit": 3341,
      "wurden": 3342,
      "iger": 3343,
      "wohl": 3344,
      "lau": 3345,
      "wor": 3346,
      "bin": 3347,
      "tik": 3348,
      "alt": 3349,
      "ternation": 3350,
      "Diese": 3351,
      "dien": 3352,
      "10": 3353,
      "ollen": 3354,
      "reich": 3355,
      "hö": 3356,
      "ill": 3357,
      "gang": 3358,
      "voll": 3359,
      "wirtschaft": 3360,
      "neue": 3361,
      "lag": 3362,
      "inn": 3363,
      "sprechen": 3364,
      "ko": 3365,
      "einf": 3366,
      "ire": 3367,
      "unserer": 3368,
      "Qu": 3369,
      "gar": 3370,
      "chts": 3371,
      "ändern": 3372,
      "Dies": 3373,
      "habe": 3374,
      "Wei": 3375,
      "Fe": 3376,
      "Ihre": 3377,
      "mus": 3378,
      "ats": 3379,
      "ätz": 3380,
      "satz": 3381,
      "po": 3382,
      "str": 3383,
      "icher": 3384,
      "olog": 3385,
      "Gem": 3386,
      "grund": 3387,
      "sondern": 3388,
      "min": 3389,
      "inter": 3390,
      "jedoch": 3391,
      "ate": 3392,
      "zeich": 3393,
      "spiel": 3394,
      "fall": 3395,
      "seine": 3396,
      "ard": 3397,
      "stru": 3398,
      "Europäische": 3399,
      "richt": 3400,
      "olitik": 3401,
      "Min": 3402,
      "elle": 3403,
      "Bürger": 3404,
      "ex": 3405,
      "alis": 3406,
      "führen": 3407,
      "erst": 3408,
      "akt": 3409,
      "Sicher": 3410,
      "enz": 3411,
      "uten": 3412,
      "itz": 3413,
      "ments": 3414,
      "fest": 3415,
      "lagen": 3416,
      "luss": 3417,
      "halt": 3418,
      "mar": 3419,
      "heute": 3420,
      "ati": 3421,
      "ruck": 3422,
      "Kl": 3423,
      "ähr": 3424,
      "frei": 3425,
      "schließ": 3426,
      "Unternehmen": 3427,
      "Stra": 3428,
      "letz": 3429,
      "ktiv": 3430,
      "Än": 3431,
      "ang": 3432,
      "Was": 3433,
      "fern": 3434,
      "öl": 3435,
      "tionen": 3436,
      "kehr": 3437,
      "Kolle": 3438,
      "rich": 3439,
      "Fin": 3440,
      "ritt": 3441,
      "lage": 3442,
      "sor": 3443,
      "ganz": 3444,
      "Änder": 3445,
      "seit": 3446,
      "ßnahmen": 3447,
      "ov": 3448,
      "bereits": 3449,
      "Wie": 3450,
      "fre": 3451,
      "ielen": 3452,
      "schn": 3453,
      "verb": 3454,
      "licher": 3455,
      "ohne": 3456,
      "lungen": 3457,
      "Bereich": 3458,
      "uer": 3459,
      "lassen": 3460,
      "mich": 3461,
      "gramm": 3462,
      "welt": 3463,
      "Entwicklung": 3464,
      "ihrer": 3465,
      "zug": 3466,
      "Daten": 3467,
      "sollte": 3468,
      "ult": 3469,
      "Bil": 3470,
      "Ko": 3471,
      "sehen": 3472,
      "europäischen": 3473,
      "weil": 3474,
      "Frage": 3475,
      "neuen": 3476,
      "führt": 3477,
      "Gemein": 3478,
      "bs": 3479,
      "selbst": 3480,
      "Wer": 3481,
      "hän": 3482,
      "ia": 3483,
      "twort": 3484,
      "Ser": 3485,
      "Leben": 3486,
      "Jahren": 3487,
      "Mö": 3488,
      "verschie": 3489,
      "liegt": 3490,
      "amen": 3491,
      "Richt": 3492,
      "aut": 3493,
      "Mo": 3494,
      "stellung": 3495,
      "andere": 3496,
      "ker": 3497,
      "12": 3498,
      "amp": 3499,
      "hei": 3500,
      "hand": 3501,
      "our": 3502,
      "grö": 3503,
      "öffent": 3504,
      "internation": 3505,
      "fr": 3506,
      "Mon": 3507,
      "Sicherheit": 3508,
      "of": 3509,
      "aller": 3510,
      "Teil": 3511,
      "mo": 3512,
      "Des": 3513,
      "bietet": 3514,
      "93": 3515,
      "sollten": 3516,
      "machen": 3517,
      "ierte": 3518,
      "esse": 3519,
      "bewer": 3520,
      "gend": 3521,
      "wa": 3522,
      "wichtig": 3523,
      "Stad": 3524,
      "ven": 3525,
      "kun": 3526,
      "nahme": 3527,
      "hält": 3528,
      "US": 3529,
      "91": 3530,
      "eite": 3531,
      "nisse": 3532,
      "Po": 3533,
      "kten": 3534,
      "Mil": 3535,
      "dan": 3536,
      "essen": 3537,
      "eben": 3538,
      "Mittel": 3539,
      "genommen": 3540,
      "atur": 3541,
      "bel": 3542,
      "geht": 3543,
      "setzen": 3544,
      "besch": 3545,
      "hm": 3546,
      "tieren": 3547,
      "zahl": 3548,
      "tigt": 3549,
      "ktur": 3550,
      "findet": 3551,
      "gut": 3552,
      "hlen": 3553,
      "besondere": 3554,
      "lang": 3555,
      "Wirtschaft": 3556,
      "unktion": 3557,
      "dazu": 3558,
      "bau": 3559,
      "einfach": 3560,
      "viele": 3561,
      "onen": 3562,
      "iv": 3563,
      "Man": 3564,
      "under": 3565,
      "ierten": 3566,
      "kunft": 3567,
      "Möglich": 3568,
      "ss": 3569,
      "Person": 3570,
      "fort": 3571,
      "pl": 3572,
      "kur": 3573,
      "alität": 3574,
      "Ger": 3575,
      "komm": 3576,
      "sagen": 3577,
      "par": 3578,
      "wick": 3579,
      "seiner": 3580,
      "sar": 3581,
      "ichte": 3582,
      "denn": 3583,
      "ust": 3584,
      "ow": 3585,
      "andel": 3586,
      "inner": 3587,
      "Rei": 3588,
      "Ex": 3589,
      "ac": 3590,
      "darauf": 3591,
      "jetzt": 3592,
      "Gen": 3593,
      "könn": 3594,
      "ahmen": 3595,
      "Stand": 3596,
      "eist": 3597,
      "isk": 3598,
      "Zimmer": 3599,
      "oren": 3600,
      "zel": 3601,
      "Rahmen": 3602,
      "schon": 3603,
      "klär": 3604,
      "wissen": 3605,
      "Informationen": 3606,
      "reis": 3607,
      "ice": 3608,
      "hl": 3609,
      "ganis": 3610,
      "Maßnahmen": 3611,
      "cken": 3612,
      "Lage": 3613,
      "zusam": 3614,
      "Hau": 3615,
      "atür": 3616,
      "gestellt": 3617,
      "bieten": 3618,
      "stra": 3619,
      "ultur": 3620,
      "Bet": 3621,
      "io": 3622,
      "einige": 3623,
      "zusammen": 3624,
      "sozi": 3625,
      "esen": 3626,
      "fte": 3627,
      "id": 3628,
      "lossen": 3629,
      "Stadt": 3630,
      "tiert": 3631,
      "dafür": 3632,
      "ett": 3633,
      "ide": 3634,
      "zeu": 3635,
      "Finanz": 3636,
      "ks": 3637,
      "gesam": 3638,
      "Ziel": 3639,
      "ade": 3640,
      "recht": 3641,
      "Am": 3642,
      "ial": 3643,
      "Jahre": 3644,
      "Dien": 3645,
      "tischen": 3646,
      "eld": 3647,
      "fäl": 3648,
      "äu": 3649,
      "ER": 3650,
      "Fall": 3651,
      "rin": 3652,
      "sätz": 3653,
      "reg": 3654,
      "Herrn": 3655,
      "mir": 3656,
      "zurück": 3657,
      "Ta": 3658,
      "Kommissar": 3659,
      "liegen": 3660,
      "hil": 3661,
      "entwick": 3662,
      "setzung": 3663,
      "Aussch": 3664,
      "iss": 3665,
      "otwen": 3666,
      "spra": 3667,
      "nun": 3668,
      "Kin": 3669,
      "stau": 3670,
      "Region": 3671,
      "heiten": 3672,
      "stär": 3673,
      "äß": 3674,
      "ihren": 3675,
      "Eur": 3676,
      "leg": 3677,
      "stal": 3678,
      "aler": 3679,
      "allem": 3680,
      "zentr": 3681,
      "uf": 3682,
      "sto": 3683,
      "lichkeit": 3684,
      "prä": 3685,
      "leist": 3686,
      "meine": 3687,
      "star": 3688,
      "falls": 3689,
      "Für": 3690,
      "weit": 3691,
      "komp": 3692,
      "are": 3693,
      "wollen": 3694,
      "beg": 3695,
      "folgen": 3696,
      "Verein": 3697,
      "punkt": 3698,
      "Rechts": 3699,
      "statt": 3700,
      "verfü": 3701,
      "Bo": 3702,
      "System": 3703,
      "Eine": 3704,
      "Ch": 3705,
      "unseren": 3706,
      "Aut": 3707,
      "lungs": 3708,
      "ine": 3709,
      "würde": 3710,
      "Ener": 3711,
      "antwort": 3712,
      "kün": 3713,
      "nie": 3714,
      "bringen": 3715,
      "dire": 3716,
      "spro": 3717,
      "Proje": 3718,
      "rat": 3719,
      "bestimm": 3720,
      "sei": 3721,
      "Bar": 3722,
      "mei": 3723,
      "tisch": 3724,
      "Parlaments": 3725,
      "län": 3726,
      "ahn": 3727,
      "ziel": 3728,
      "dür": 3729,
      "leben": 3730,
      "etwas": 3731,
      "Lös": 3732,
      "während": 3733,
      "Recht": 3734,
      "techn": 3735,
      "Res": 3736,
      "Su": 3737,
      "co": 3738,
      "Arbeits": 3739,
      "tigung": 3740,
      "drei": 3741,
      "Vorschlag": 3742,
      "Länder": 3743,
      "delt": 3744,
      "erhalten": 3745,
      "Form": 3746,
      "yp": 3747,
      "Verb": 3748,
      "Geschä": 3749,
      "legt": 3750,
      "gangen": 3751,
      "waren": 3752,
      "Frei": 3753,
      "ogen": 3754,
      "bez": 3755,
      "hmen": 3756,
      "ordnung": 3757,
      "ersten": 3758,
      "res": 3759,
      "Problem": 3760,
      "schri": 3761,
      "arbeiten": 3762,
      "Und": 3763,
      "hol": 3764,
      "15": 3765,
      "itte": 3766,
      "isten": 3767,
      "Unser": 3768,
      "aum": 3769,
      "ichter": 3770,
      "Durch": 3771,
      "schein": 3772,
      "äl": 3773,
      "tier": 3774,
      "ßt": 3775,
      "Unterstütz": 3776,
      "tragen": 3777,
      "Komp": 3778,
      "linie": 3779,
      "insbesondere": 3780,
      "riv": 3781,
      "verwen": 3782,
      "Programm": 3783,
      "kauf": 3784,
      "rag": 3785,
      "Dem": 3786,
      "umf": 3787,
      "ations": 3788,
      "erreich": 3789,
      "ache": 3790,
      "nation": 3791,
      "außer": 3792,
      "fft": 3793,
      "schaften": 3794,
      "atürlich": 3795,
      "begr": 3796,
      "amil": 3797,
      "stimmung": 3798,
      "Fraktion": 3799,
      "unterstütz": 3800,
      "Politik": 3801,
      "gesetzt": 3802,
      "einmal": 3803,
      "räge": 3804,
      "Fre": 3805,
      "Verfü": 3806,
      "Markt": 3807,
      "Änderungs": 3808,
      "schw": 3809,
      "assung": 3810,
      "Kunden": 3811,
      "199": 3812,
      "Pl": 3813,
      "Ur": 3814,
      "bede": 3815,
      "Br": 3816,
      "glichen": 3817,
      "ite": 3818,
      "ign": 3819,
      "gabe": 3820,
      "Mein": 3821,
      "einge": 3822,
      "Lu": 3823,
      "Str": 3824,
      "Lin": 3825,
      "utzen": 3826,
      "zun": 3827,
      "tun": 3828,
      "digen": 3829,
      "stitu": 3830,
      "letzten": 3831,
      "völ": 3832,
      "Unterstützung": 3833,
      "beim": 3834,
      "rank": 3835,
      "ond": 3836,
      "get": 3837,
      "also": 3838,
      "Li": 3839,
      "Sti": 3840,
      "itäten": 3841,
      "Zusammenarbeit": 3842,
      "ellschaft": 3843,
      "ue": 3844,
      "gri": 3845,
      "gaben": 3846,
      "Namen": 3847,
      "Art": 3848,
      "ständig": 3849,
      "druck": 3850,
      "Gesch": 3851,
      "gehör": 3852,
      "treten": 3853,
      "Umwelt": 3854,
      "Tran": 3855,
      "fl": 3856,
      "okra": 3857,
      "UN": 3858,
      "Energie": 3859,
      "gemeinsam": 3860,
      "Gemeinschaft": 3861,
      "Ländern": 3862,
      "zeug": 3863,
      "ware": 3864,
      "dlich": 3865,
      "darf": 3866,
      "amer": 3867,
      "Je": 3868,
      "ta": 3869,
      "Euro": 3870,
      "Deut": 3871,
      "jen": 3872,
      "besteht": 3873,
      "vice": 3874,
      "na": 3875,
      "Tag": 3876,
      "Ro": 3877,
      "Spiel": 3878,
      "ismus": 3879,
      "handel": 3880,
      "markt": 3881,
      "Flug": 3882,
      "örder": 3883,
      "eln": 3884,
      "Hin": 3885,
      "will": 3886,
      "Ste": 3887,
      "führung": 3888,
      "blick": 3889,
      "deren": 3890,
      "zial": 3891,
      "stim": 3892,
      "gef": 3893,
      "glau": 3894,
      "Handel": 3895,
      "ere": 3896,
      "30": 3897,
      "merk": 3898,
      "Fragen": 3899,
      "sk": 3900,
      "wach": 3901,
      "Anwen": 3902,
      "Dienst": 3903,
      "lex": 3904,
      "Regierung": 3905,
      "leicht": 3906,
      "Hil": 3907,
      "bekann": 3908,
      "seinen": 3909,
      "Beit": 3910,
      "stan": 3911,
      "Ha": 3912,
      "Milli": 3913,
      "Stel": 3914,
      "Em": 3915,
      "Web": 3916,
      "ichts": 3917,
      "raum": 3918,
      "feren": 3919,
      "xt": 3920,
      "welche": 3921,
      "La": 3922,
      "handelt": 3923,
      "18": 3924,
      "com": 3925,
      "Besch": 3926,
      "zieh": 3927,
      "entsprechen": 3928,
      "blei": 3929,
      "rechte": 3930,
      "wär": 3931,
      "mente": 3932,
      "Seite": 3933,
      "tigkeit": 3934,
      "wäre": 3935,
      "Kollegen": 3936,
      "gelegen": 3937,
      "dabei": 3938,
      "ichterstat": 3939,
      "reichen": 3940,
      "rupp": 3941,
      "pe": 3942,
      "kosten": 3943,
      "ettbewer": 3944,
      "ühr": 3945,
      "ja": 3946,
      "Geschäft": 3947,
      "Part": 3948,
      "Vertrag": 3949,
      "oten": 3950,
      "Entschei": 3951,
      "Dar": 3952,
      "wert": 3953,
      "häng": 3954,
      "fiz": 3955,
      "Co": 3956,
      "wirklich": 3957,
      "tische": 3958,
      "stell": 3959,
      "ohn": 3960,
      "Techn": 3961,
      "muß": 3962,
      "klar": 3963,
      "000": 3964,
      "bung": 3965,
      "worden": 3966,
      "wahr": 3967,
      "raft": 3968,
      "größ": 3969,
      "offen": 3970,
      "Gro": 3971,
      "Hand": 3972,
      "otwendig": 3973,
      "große": 3974,
      "großen": 3975,
      "Bedeut": 3976,
      "prü": 3977,
      "Proz": 3978,
      "unde": 3979,
      "EN": 3980,
      "zeigt": 3981,
      "con": 3982,
      "cher": 3983,
      "Verfügung": 3984,
      "undheit": 3985,
      "halts": 3986,
      "kre": 3987,
      "spar": 3988,
      "ktor": 3989,
      "let": 3990,
      "dingungen": 3991,
      "rän": 3992,
      "asse": 3993,
      "politischen": 3994,
      "Eben": 3995,
      "chäf": 3996,
      "erfol": 3997,
      "Sa": 3998,
      "Bedeutung": 3999,
      "AR": 4000,
      "Kinder": 4001,
      "Ergeb": 4002,
      "igung": 4003,
      "Hier": 4004,
      "lauf": 4005,
      "bur": 4006,
      "etz": 4007,
      "Möglichkeit": 4008,
      "Schutz": 4009,
      "Thema": 4010,
      "jeder": 4011,
      "moder": 4012,
      "ative": 4013,
      "stä": 4014,
      "Lebens": 4015,
      "pflich": 4016,
      "schließen": 4017,
      "50": 4018,
      "arten": 4019,
      "CO": 4020,
      "pa": 4021,
      "ahlen": 4022,
      "fäh": 4023,
      "one": 4024,
      "Berichterstat": 4025,
      "Auch": 4026,
      "gere": 4027,
      "kommt": 4028,
      "eigenen": 4029,
      "bo": 4030,
      "ca": 4031,
      "bereich": 4032,
      "ST": 4033,
      "anischen": 4034,
      "Staaten": 4035,
      "Fahr": 4036,
      "Haupt": 4037,
      "Aber": 4038,
      "Stu": 4039,
      "hau": 4040,
      "hervor": 4041,
      "staat": 4042,
      "wes": 4043,
      "schutz": 4044,
      "zep": 4045,
      "Vol": 4046,
      "näch": 4047,
      "schließlich": 4048,
      "entfern": 4049,
      "Fol": 4050,
      "fül": 4051,
      "Als": 4052,
      "weisen": 4053,
      "Internet": 4054,
      "Gew": 4055,
      "alles": 4056,
      "tä": 4057,
      "ligen": 4058,
      "Lie": 4059,
      "suchen": 4060,
      "davon": 4061,
      "ph": 4062,
      "rak": 4063,
      "Ben": 4064,
      "ierungs": 4065,
      "wegen": 4066,
      "vest": 4067,
      "Gä": 4068,
      "dessen": 4069,
      "Beispiel": 4070,
      "darüber": 4071,
      "stauran": 4072,
      "Ju": 4073,
      "Zukunft": 4074,
      "schnell": 4075,
      "anzu": 4076,
      "ums": 4077,
      "daher": 4078,
      "erforder": 4079,
      "gegenüber": 4080,
      "kein": 4081,
      "ffiz": 4082,
      "tem": 4083,
      "aktiv": 4084,
      "Probleme": 4085,
      "äh": 4086,
      "hang": 4087,
      "Seiten": 4088,
      "tikel": 4089,
      "samen": 4090,
      "produ": 4091,
      "politik": 4092,
      "Frauen": 4093,
      "Famil": 4094,
      "Gegen": 4095,
      "rise": 4096,
      "ald": 4097,
      "befindet": 4098,
      "sowohl": 4099,
      "Weise": 4100,
      "Ihrer": 4101,
      "käm": 4102,
      "meiner": 4103,
      "At": 4104,
      "weitere": 4105,
      "rieden": 4106,
      "hoch": 4107,
      "ritte": 4108,
      "ingt": 4109,
      "auer": 4110,
      "erreichen": 4111,
      "Zentr": 4112,
      "Weg": 4113,
      "Tra": 4114,
      "gern": 4115,
      "gegeben": 4116,
      "bed": 4117,
      "natürlich": 4118,
      "geord": 4119,
      "Ende": 4120,
      "hatte": 4121,
      "unterstützen": 4122,
      "ou": 4123,
      "gesehen": 4124,
      "besonders": 4125,
      "mü": 4126,
      "ian": 4127,
      "könnte": 4128,
      "inen": 4129,
      "Mehr": 4130,
      "Dat": 4131,
      "hof": 4132,
      "Ausschuss": 4133,
      "Sol": 4134,
      "neten": 4135,
      "Forsch": 4136,
      "dt": 4137,
      "stens": 4138,
      "bat": 4139,
      "arte": 4140,
      "Berichterstatter": 4141,
      "od": 4142,
      "reise": 4143,
      "verschiedenen": 4144,
      "Situ": 4145,
      "Grupp": 4146,
      "ihnen": 4147,
      "pr": 4148,
      "finanz": 4149,
      "entfernt": 4150,
      "Funktion": 4151,
      "rieben": 4152,
      "Richtlinie": 4153,
      "Bild": 4154,
      "ister": 4155,
      "tungen": 4156,
      "ruch": 4157,
      "geschlossen": 4158,
      "ziehen": 4159,
      "reifen": 4160,
      "use": 4161,
      "innerhalb": 4162,
      "ital": 4163,
      "ehmen": 4164,
      "Di": 4165,
      "ka": 4166,
      "obil": 4167,
      "aktu": 4168,
      "abhäng": 4169,
      "genann": 4170,
      "dort": 4171,
      "vielen": 4172,
      "Wettbewer": 4173,
      "abil": 4174,
      "einzu": 4175,
      "geführt": 4176,
      "rifft": 4177,
      "weg": 4178,
      "Währ": 4179,
      "ome": 4180,
      "ider": 4181,
      "dings": 4182,
      "zip": 4183,
      "He": 4184,
      "Wasser": 4185,
      "Rück": 4186,
      "sön": 4187,
      "Deutsch": 4188,
      "vers": 4189,
      "cen": 4190,
      "gän": 4191,
      "dungen": 4192,
      "ftware": 4193,
      "Rolle": 4194,
      "Artikel": 4195,
      "äuß": 4196,
      "indung": 4197,
      "bri": 4198,
      "Zwei": 4199,
      "Grün": 4200,
      "ron": 4201,
      "möchten": 4202,
      "internationalen": 4203,
      "zwar": 4204,
      "Ob": 4205,
      "War": 4206,
      "angen": 4207,
      "geln": 4208,
      "Vert": 4209,
      "stet": 4210,
      "ase": 4211,
      "direkt": 4212,
      "agt": 4213,
      "Woch": 4214,
      "Nutz": 4215,
      "Uhr": 4216,
      "az": 4217,
      "sprache": 4218,
      "Ihren": 4219,
      "werk": 4220,
      "einzel": 4221,
      "tiger": 4222,
      "scheiden": 4223,
      "mäß": 4224,
      "tlich": 4225,
      "dition": 4226,
      "Kü": 4227,
      "erken": 4228,
      "Verbrauch": 4229,
      "erste": 4230,
      "Fort": 4231,
      "RE": 4232,
      "danken": 4233,
      "Gl": 4234,
      "ima": 4235,
      "Alle": 4236,
      "verschieden": 4237,
      "posi": 4238,
      "genau": 4239,
      "Pf": 4240,
      "nehmer": 4241,
      "vier": 4242,
      "gewähr": 4243,
      "Gesetz": 4244,
      "gebra": 4245,
      "stimmt": 4246,
      "hunder": 4247,
      "USA": 4248,
      "sweise": 4249,
      "11": 4250,
      "schaffen": 4251,
      "bestehen": 4252,
      "europäische": 4253,
      "Disk": 4254,
      "Terr": 4255,
      "konn": 4256,
      "mitt": 4257,
      "Restauran": 4258,
      "zer": 4259,
      "ologie": 4260,
      "ater": 4261,
      "spolitik": 4262,
      "lu": 4263,
      "lig": 4264,
      "halte": 4265,
      "Sk": 4266,
      "ül": 4267,
      "mon": 4268,
      "ktionen": 4269,
      "haus": 4270,
      "les": 4271,
      "opp": 4272,
      "rüh": 4273,
      "frage": 4274,
      "Gebie": 4275,
      "lätz": 4276,
      "stimmen": 4277,
      "Mus": 4278,
      "Geschäfts": 4279,
      "tro": 4280,
      "Wor": 4281,
      "Spra": 4282,
      "tegie": 4283,
      "Partner": 4284,
      "do": 4285,
      "ys": 4286,
      "ünst": 4287,
      "zimmer": 4288,
      "unge": 4289,
      "Meinung": 4290,
      "uter": 4291,
      "stück": 4292,
      "Gesundheit": 4293,
      "hel": 4294,
      "antrag": 4295,
      "line": 4296,
      "Preis": 4297,
      "yn": 4298,
      "igten": 4299,
      "eig": 4300,
      "Hilfe": 4301,
      "lik": 4302,
      "oku": 4303,
      "Kultur": 4304,
      "weis": 4305,
      "iste": 4306,
      "Kre": 4307,
      "dlichen": 4308,
      "Personen": 4309,
      "Kont": 4310,
      "Gäste": 4311,
      "grün": 4312,
      "gesagt": 4313,
      "mor": 4314,
      "drück": 4315,
      "Gleich": 4316,
      "Con": 4317,
      "hät": 4318,
      "plan": 4319,
      "Zusammenhang": 4320,
      "unserem": 4321,
      "einander": 4322,
      "Lösung": 4323,
      "Abgeord": 4324,
      "ütz": 4325,
      "Fest": 4326,
      "Situation": 4327,
      "ym": 4328,
      "Indu": 4329,
      "beiden": 4330,
      "Ele": 4331,
      "gelegt": 4332,
      "2009": 4333,
      "läge": 4334,
      "hinaus": 4335,
      "Entschließ": 4336,
      "Bau": 4337,
      "asst": 4338,
      "spä": 4339,
      "Software": 4340,
      "16": 4341,
      "alten": 4342,
      "Dieses": 4343,
      "verbesser": 4344,
      "eng": 4345,
      "ilt": 4346,
      "achten": 4347,
      "sichtlich": 4348,
      "groß": 4349,
      "Natur": 4350,
      "schrei": 4351,
      "Schluss": 4352,
      "stützt": 4353,
      "verkehr": 4354,
      "ity": 4355,
      "Spe": 4356,
      "Scha": 4357,
      "Verantwort": 4358,
      "jähr": 4359,
      "bu": 4360,
      "orden": 4361,
      "ferenz": 4362,
      "14": 4363,
      "ari": 4364,
      "Projekt": 4365,
      "erien": 4366,
      "Den": 4367,
      "Produkte": 4368,
      "unterschie": 4369,
      "politische": 4370,
      "Op": 4371,
      "alisierung": 4372,
      "Kontr": 4373,
      "folg": 4374,
      "por": 4375,
      "Pol": 4376,
      "macht": 4377,
      "Präsidentin": 4378,
      "demokra": 4379,
      "baren": 4380,
      "Dienstleist": 4381,
      "begrü": 4382,
      "erwar": 4383,
      "bzw": 4384,
      "tes": 4385,
      "reffen": 4386,
      "Sü": 4387,
      "Met": 4388,
      "weniger": 4389,
      "daran": 4390,
      "Geb": 4391,
      "th": 4392,
      "ed": 4393,
      "Kosten": 4394,
      "aussch": 4395,
      "wün": 4396,
      "nt": 4397,
      "Deshalb": 4398,
      "Deutschland": 4399,
      "etwa": 4400,
      "ali": 4401,
      "teilung": 4402,
      "öffentlichen": 4403,
      "bitte": 4404,
      "ichtet": 4405,
      "gilt": 4406,
      "pfe": 4407,
      "auszu": 4408,
      "schrift": 4409,
      "fragen": 4410,
      "persön": 4411,
      "jeden": 4412,
      "Son": 4413,
      "Viel": 4414,
      "fähr": 4415,
      "gute": 4416,
      "struktur": 4417,
      "av": 4418,
      "que": 4419,
      "gemacht": 4420,
      "enzen": 4421,
      "zeitig": 4422,
      "forderungen": 4423,
      "124": 4424,
      "ämlich": 4425,
      "laub": 4426,
      "funktion": 4427,
      "ragen": 4428,
      "indem": 4429,
      "Bu": 4430,
      "utet": 4431,
      "Verfahren": 4432,
      "nämlich": 4433,
      "Erfahr": 4434,
      "zü": 4435,
      "To": 4436,
      "site": 4437,
      "leisten": 4438,
      "Service": 4439,
      "entscheiden": 4440,
      "Hotels": 4441,
      "roffen": 4442,
      "system": 4443,
      "ierungen": 4444,
      "Du": 4445,
      "Millionen": 4446,
      "einigen": 4447,
      "okrat": 4448,
      "gerade": 4449,
      "Haushalts": 4450,
      "gebracht": 4451,
      "ücksich": 4452,
      "17": 4453,
      "ies": 4454,
      "13": 4455,
      "sogar": 4456,
      "ritten": 4457,
      "Bus": 4458,
      "fang": 4459,
      "Kur": 4460,
      "Chin": 4461,
      "teilen": 4462,
      "tions": 4463,
      "stadt": 4464,
      "verstän": 4465,
      "rechts": 4466,
      "enden": 4467,
      "schö": 4468,
      "Zugang": 4469,
      "part": 4470,
      "Weiter": 4471,
      "Europas": 4472,
      "altung": 4473,
      "Fir": 4474,
      "Schw": 4475,
      "völker": 4476,
      "km": 4477,
      "Rates": 4478,
      "dürfen": 4479,
      "Fil": 4480,
      "Punkt": 4481,
      "vert": 4482,
      "zunehmen": 4483,
      "Pal": 4484,
      "aufge": 4485,
      "IN": 4486,
      "Qualität": 4487,
      "Tür": 4488,
      "schwer": 4489,
      "ächlich": 4490,
      "ebenfalls": 4491,
      "Ort": 4492,
      "Mal": 4493,
      "Unsere": 4494,
      "rom": 4495,
      "zeichnet": 4496,
      "schl": 4497,
      "Eigen": 4498,
      "ihn": 4499,
      "Institu": 4500,
      "stre": 4501,
      "greich": 4502,
      "upp": 4503,
      "ure": 4504,
      "organis": 4505,
      "Datei": 4506,
      "Invest": 4507,
      "okratie": 4508,
      "no": 4509,
      "Kap": 4510,
      "Dieser": 4511,
      "bef": 4512,
      "Entwicklungs": 4513,
      "Organis": 4514,
      "ckt": 4515,
      "Netz": 4516,
      "zig": 4517,
      "Verhand": 4518,
      "verbunden": 4519,
      "agement": 4520,
      "wesent": 4521,
      "Ebene": 4522,
      "Geld": 4523,
      "Angeb": 4524,
      "ehr": 4525,
      "ihm": 4526,
      "onds": 4527,
      "istor": 4528,
      "seinem": 4529,
      "able": 4530,
      "San": 4531,
      "Aussprache": 4532,
      "AN": 4533,
      "sionen": 4534,
      "Nicht": 4535,
      "langen": 4536,
      "Leist": 4537,
      "Jahres": 4538,
      "Bezug": 4539,
      "Zahl": 4540,
      "arbeitet": 4541,
      "Tats": 4542,
      "fast": 4543,
      "unterstützt": 4544,
      "ichten": 4545,
      "ativen": 4546,
      "brauchen": 4547,
      "ember": 4548,
      "Schl": 4549,
      "inform": 4550,
      "herr": 4551,
      "ech": 4552,
      "mel": 4553,
      "nete": 4554,
      "amerik": 4555,
      "ober": 4556,
      "igt": 4557,
      "itzen": 4558,
      "Wahl": 4559,
      "isches": 4560,
      "rim": 4561,
      "Initi": 4562,
      "Produktion": 4563,
      "gebung": 4564,
      "ore": 4565,
      "Verbraucher": 4566,
      "Abstimmung": 4567,
      "Klima": 4568,
      "Lan": 4569,
      "prochen": 4570,
      "25": 4571,
      "kung": 4572,
      "ysteme": 4573,
      "port": 4574,
      "itt": 4575,
      "künf": 4576,
      "angeb": 4577,
      "darin": 4578,
      "deutlich": 4579,
      "burg": 4580,
      "glaube": 4581,
      "Indust": 4582,
      "att": 4583,
      "läs": 4584,
      "laden": 4585,
      "ame": 4586,
      "cke": 4587,
      "Rechte": 4588,
      "Verkehr": 4589,
      "abge": 4590,
      "Sel": 4591,
      "Meer": 4592,
      "Nä": 4593,
      "itär": 4594,
      "ip": 4595,
      "Gesellschaft": 4596,
      "ator": 4597,
      "denken": 4598,
      "hotel": 4599,
      "vo": 4600,
      "erklär": 4601,
      "kom": 4602,
      "Wirtschafts": 4603,
      "Mär": 4604,
      "möglichen": 4605,
      "nationalen": 4606,
      "nichts": 4607,
      "üssel": 4608,
      "Sozial": 4609,
      "Benutz": 4610,
      "omati": 4611,
      "ampf": 4612,
      "fordern": 4613,
      "Abkommen": 4614,
      "Bel": 4615,
      "Mail": 4616,
      "öst": 4617,
      "rieb": 4618,
      "tive": 4619,
      "freund": 4620,
      "Früh": 4621,
      "Hei": 4622,
      "Tour": 4623,
      "wiesen": 4624,
      "tran": 4625,
      "zehn": 4626,
      "sollen": 4627,
      "Beschäf": 4628,
      "Jahrhunder": 4629,
      "utzt": 4630,
      "rech": 4631,
      "gte": 4632,
      "Gi": 4633,
      "ihrem": 4634,
      "Dank": 4635,
      "gesprochen": 4636,
      "keinen": 4637,
      "iere": 4638,
      "speziel": 4639,
      "liches": 4640,
      "beispiel": 4641,
      "ogra": 4642,
      "Buch": 4643,
      "bare": 4644,
      "zusätz": 4645,
      "Wissen": 4646,
      "igkeiten": 4647,
      "unkte": 4648,
      "ren": 4649,
      "betrifft": 4650,
      "ächst": 4651,
      "Steuer": 4652,
      "fa": 4653,
      "Instru": 4654,
      "meisten": 4655,
      "Lei": 4656,
      "orien": 4657,
      "kurz": 4658,
      "Debat": 4659,
      "Industrie": 4660,
      "Gra": 4661,
      "Doku": 4662,
      "amm": 4663,
      "ct": 4664,
      "up": 4665,
      "Strategie": 4666,
      "24": 4667,
      "wenig": 4668,
      "Verw": 4669,
      "Hö": 4670,
      "immt": 4671,
      "2010": 4672,
      "anderer": 4673,
      "umfassen": 4674,
      "region": 4675,
      "hlt": 4676,
      "mm": 4677,
      "Produkt": 4678,
      "Website": 4679,
      "weiterhin": 4680,
      "geschlagen": 4681,
      "haltung": 4682,
      "setzt": 4683,
      "prof": 4684,
      "dit": 4685,
      "Groß": 4686,
      "bas": 4687,
      "griff": 4688,
      "verfahren": 4689,
      "iff": 4690,
      "standen": 4691,
      "platz": 4692,
      "Sitz": 4693,
      "dige": 4694,
      "interess": 4695,
      "unst": 4696,
      "Gener": 4697,
      "ive": 4698,
      "oft": 4699,
      "unver": 4700,
      "mals": 4701,
      "daten": 4702,
      "such": 4703,
      "Änderungsant": 4704,
      "besten": 4705,
      "Fischer": 4706,
      "zustellen": 4707,
      "notwendig": 4708,
      "bekannt": 4709,
      "uni": 4710,
      "benö": 4711,
      "Fortsch": 4712,
      "seits": 4713,
      "affen": 4714,
      "deshalb": 4715,
      "gesetz": 4716,
      "bedeutet": 4717,
      "zeigen": 4718,
      "priv": 4719,
      "by": 4720,
      "öffentlich": 4721,
      "nutzen": 4722,
      "wirtschaftlichen": 4723,
      "rieg": 4724,
      "wahl": 4725,
      "Frank": 4726,
      "einger": 4727,
      "solche": 4728,
      "CH": 4729,
      "Kolleg": 4730,
      "Raum": 4731,
      "wichtige": 4732,
      "teilt": 4733,
      "Standard": 4734,
      "dest": 4735,
      "tal": 4736,
      "Wach": 4737,
      "Bezieh": 4738,
      "gliche": 4739,
      "Comp": 4740,
      "DER": 4741,
      "gehört": 4742,
      "pfung": 4743,
      "Plan": 4744,
      "Ergebnis": 4745,
      "Von": 4746,
      "grupp": 4747,
      "Ide": 4748,
      "Fot": 4749,
      "IT": 4750,
      "kan": 4751,
      "Bas": 4752,
      "spruch": 4753,
      "aufgrund": 4754,
      "greifen": 4755,
      "Außen": 4756,
      "spr": 4757,
      "gien": 4758,
      "würden": 4759,
      "Insel": 4760,
      "sport": 4761,
      "Stru": 4762,
      "Bl": 4763,
      "Far": 4764,
      "Ph": 4765,
      "Is": 4766,
      "Menschenrechte": 4767,
      "Ansicht": 4768,
      "Umsetzung": 4769,
      "met": 4770,
      "histor": 4771,
      "Richtung": 4772,
      "Bevölker": 4773,
      "ay": 4774,
      "rinzip": 4775,
      "Demokratie": 4776,
      "Verbesser": 4777,
      "nächsten": 4778,
      "fung": 4779,
      "hörden": 4780,
      "schluss": 4781,
      "ielt": 4782,
      "Gol": 4783,
      "frist": 4784,
      "vent": 4785,
      "Förder": 4786,
      "scht": 4787,
      "werde": 4788,
      "Anwendung": 4789,
      "verw": 4790,
      "bew": 4791,
      "Nähe": 4792,
      "Besuch": 4793,
      "trä": 4794,
      "fri": 4795,
      "Port": 4796,
      "Struktur": 4797,
      "Prozess": 4798,
      "2008": 4799,
      "ffung": 4800,
      "eten": 4801,
      "Herren": 4802,
      "neuer": 4803,
      "Luft": 4804,
      "bleiben": 4805,
      "Musik": 4806,
      "Wert": 4807,
      "Kunst": 4808,
      "fel": 4809,
      "enthalten": 4810,
      "All": 4811,
      "Kat": 4812,
      "ffizien": 4813,
      "ublik": 4814,
      "eile": 4815,
      "Druck": 4816,
      "hoffe": 4817,
      "allerdings": 4818,
      "100": 4819,
      "dliche": 4820,
      "stum": 4821,
      "Verantwortung": 4822,
      "hler": 4823,
      "Uni": 4824,
      "Ziele": 4825,
      "versch": 4826,
      "richtung": 4827,
      "tis": 4828,
      "Bedingungen": 4829,
      "Mitarbei": 4830,
      "Text": 4831,
      "Entscheidung": 4832,
      "ile": 4833,
      "ium": 4834,
      "spezi": 4835,
      "Tages": 4836,
      "fün": 4837,
      "beispielsweise": 4838,
      "brei": 4839,
      "lätze": 4840,
      "gramme": 4841,
      "iellen": 4842,
      "lö": 4843,
      "Park": 4844,
      "jahr": 4845,
      "Aktiv": 4846,
      "itäts": 4847,
      "tur": 4848,
      "größer": 4849,
      "nimmt": 4850,
      "Auft": 4851,
      "kultur": 4852,
      "gemeinsamen": 4853,
      "omit": 4854,
      "Vorschläge": 4855,
      "Erweiter": 4856,
      "wirkungen": 4857,
      "hnt": 4858,
      "Dah": 4859,
      "Aspe": 4860,
      "verwendet": 4861,
      "Verf": 4862,
      "Gebiet": 4863,
      "scheint": 4864,
      "oper": 4865,
      "As": 4866,
      "IS": 4867,
      "Interesse": 4868,
      "kor": 4869,
      "gebie": 4870,
      "kleinen": 4871,
      "lange": 4872,
      "gerung": 4873,
      "Fern": 4874,
      "Reihe": 4875,
      "ranz": 4876,
      "Partei": 4877,
      "gleichen": 4878,
      "zept": 4879,
      "Grundlage": 4880,
      "zin": 4881,
      "Ihrem": 4882,
      "Einsatz": 4883,
      "vielleicht": 4884,
      "berücksich": 4885,
      "verein": 4886,
      "merksam": 4887,
      "unternehmen": 4888,
      "El": 4889,
      "sozialen": 4890,
      "Wieder": 4891,
      "ateg": 4892,
      "spielen": 4893,
      "höch": 4894,
      "erfül": 4895,
      "Selbst": 4896,
      "ermöglich": 4897,
      "rauen": 4898,
      "bevor": 4899,
      "Version": 4900,
      "Angelegen": 4901,
      "glob": 4902,
      "Daher": 4903,
      "tin": 4904,
      "ww": 4905,
      "fordert": 4906,
      "volle": 4907,
      "Außer": 4908,
      "Wort": 4909,
      "Erfolg": 4910,
      "lation": 4911,
      "dio": 4912,
      "Geschichte": 4913,
      "erreicht": 4914,
      "Möglichkeiten": 4915,
      "reiche": 4916,
      "Frieden": 4917,
      "weder": 4918,
      "ers": 4919,
      "Gar": 4920,
      "twor": 4921,
      "Ad": 4922,
      "ings": 4923,
      "disk": 4924,
      "ote": 4925,
      "Sor": 4926,
      "Arbeitsp": 4927,
      "linien": 4928,
      "Prä": 4929,
      "weiß": 4930,
      "gelten": 4931,
      "arbeitung": 4932,
      "Debatte": 4933,
      "Blick": 4934,
      "ib": 4935,
      "Erklär": 4936,
      "dungs": 4937,
      "Vort": 4938,
      "Sicherheits": 4939,
      "läss": 4940,
      "tweit": 4941,
      "sition": 4942,
      "Kön": 4943,
      "Russ": 4944,
      "Institutionen": 4945,
      "schwier": 4946,
      "betra": 4947,
      "sucht": 4948,
      "folgt": 4949,
      "Konf": 4950,
      "Sh": 4951,
      "Öff": 4952,
      "entwickelt": 4953,
      "befinden": 4954,
      "Damen": 4955,
      "ans": 4956,
      "On": 4957,
      "allgem": 4958,
      "Forschung": 4959,
      "elegen": 4960,
      "stellungen": 4961,
      "nor": 4962,
      "stu": 4963,
      "Hoch": 4964,
      "erwä": 4965,
      "tete": 4966,
      "bildung": 4967,
      "verschiedene": 4968,
      "scher": 4969,
      "vorgeschlagen": 4970,
      "Minuten": 4971,
      "App": 4972,
      "Mitglieder": 4973,
      "itten": 4974,
      "ina": 4975,
      "istischen": 4976,
      "bank": 4977,
      "mitteln": 4978,
      "STAR": 4979,
      "Platz": 4980,
      "vorsch": 4981,
      "steller": 4982,
      "hinder": 4983,
      "helfen": 4984,
      "stattet": 4985,
      "hinzu": 4986,
      "Kraft": 4987,
      "verfügt": 4988,
      "wit": 4989,
      "New": 4990,
      "Pak": 4991,
      "frü": 4992,
      "go": 4993,
      "China": 4994,
      "könnten": 4995,
      "konkre": 4996,
      "gestimmt": 4997,
      "ruh": 4998,
      "gemeinsame": 4999,
      "Diskus": 5000,
      "nehm": 5001,
      "Dienstleistungen": 5002,
      "SCO": 5003,
      "2007": 5004,
      "Hinblick": 5005,
      "Nation": 5006,
      "unik": 5007,
      "ermöglicht": 5008,
      "terial": 5009,
      "sitz": 5010,
      "tats": 5011,
      "weltweit": 5012,
      "Änderungsantrag": 5013,
      "ende": 5014,
      "Woh": 5015,
      "Priv": 5016,
      "ack": 5017,
      "tim": 5018,
      "gab": 5019,
      "verl": 5020,
      "folge": 5021,
      "40": 5022,
      "einzi": 5023,
      "Restaurant": 5024,
      "hinter": 5025,
      "kontr": 5026,
      "rel": 5027,
      "Heraus": 5028,
      "Schul": 5029,
      "Pla": 5030,
      "hatten": 5031,
      "Frühstück": 5032,
      "idu": 5033,
      "Investi": 5034,
      "Auswirkungen": 5035,
      "Regionen": 5036,
      "schriften": 5037,
      "Th": 5038,
      "iken": 5039,
      "letzt": 5040,
      "angem": 5041,
      "2000": 5042,
      "ession": 5043,
      "Einzel": 5044,
      "ebenso": 5045,
      "präsen": 5046,
      "äum": 5047,
      "bisher": 5048,
      "Nie": 5049,
      "heim": 5050,
      "erforderlich": 5051,
      "jenigen": 5052,
      "fünf": 5053,
      "eitung": 5054,
      "Ausdruck": 5055,
      "Verhandlungen": 5056,
      "Tatsache": 5057,
      "bezü": 5058,
      "Tro": 5059,
      "Kom": 5060,
      "bahn": 5061,
      "gesellschaft": 5062,
      "Innen": 5063,
      "Seit": 5064,
      "Inte": 5065,
      "Interessen": 5066,
      "spricht": 5067,
      "inge": 5068,
      "abzu": 5069,
      "Familien": 5070,
      "Agen": 5071,
      "mut": 5072,
      "ielle": 5073,
      "Tele": 5074,
      "bedeuten": 5075,
      "Schritt": 5076,
      "isse": 5077,
      "genie": 5078,
      "tliche": 5079,
      "Dial": 5080,
      "Pe": 5081,
      "Fäl": 5082,
      "gesamten": 5083,
      "dam": 5084,
      "Inn": 5085,
      "rimin": 5086,
      "Wohn": 5087,
      "isen": 5088,
      "Ru": 5089,
      "Neu": 5090,
      "verantwort": 5091,
      "Liste": 5092,
      "II": 5093,
      "Kenn": 5094,
      "abel": 5095,
      "ly": 5096,
      "chsel": 5097,
      "fon": 5098,
      "einzelnen": 5099,
      "Kolleginnen": 5100,
      "Führ": 5101,
      "Doch": 5102,
      "denke": 5103,
      "Binnen": 5104,
      "Wil": 5105,
      "Wind": 5106,
      "chs": 5107,
      "inte": 5108,
      "digung": 5109,
      "darum": 5110,
      "fik": 5111,
      "gesichts": 5112,
      "gest": 5113,
      "Abgeordneten": 5114,
      "Landes": 5115,
      "Gruppe": 5116,
      "später": 5117,
      "reisen": 5118,
      "Prof": 5119,
      "Werk": 5120,
      "bür": 5121,
      "auber": 5122,
      "Außerdem": 5123,
      "pfen": 5124,
      "Sc": 5125,
      "Haushalt": 5126,
      "erhe": 5127,
      "angenommen": 5128,
      "empf": 5129,
      "weiteren": 5130,
      "stelle": 5131,
      "gesp": 5132,
      "Vertre": 5133,
      "barkeit": 5134,
      "räsidenten": 5135,
      "Antwort": 5136,
      "Änderungsanträge": 5137,
      "aner": 5138,
      "fs": 5139,
      "nern": 5140,
      "Zentrum": 5141,
      "Univers": 5142,
      "ände": 5143,
      "Char": 5144,
      "erhö": 5145,
      "krä": 5146,
      "gestal": 5147,
      "för": 5148,
      "verur": 5149,
      "tens": 5150,
      "jedem": 5151,
      "flä": 5152,
      "neben": 5153,
      "Türk": 5154,
      "Webs": 5155,
      "dell": 5156,
      "erfolgreich": 5157,
      "richtig": 5158,
      "Bereichen": 5159,
      "Verwen": 5160,
      "hung": 5161,
      "ändert": 5162,
      "internationale": 5163,
      "ommer": 5164,
      "kämpfung": 5165,
      "fähigkeit": 5166,
      "ländern": 5167,
      "Zum": 5168,
      "usst": 5169,
      "Gelegen": 5170,
      "Kar": 5171,
      "konnte": 5172,
      "hätte": 5173,
      "Vide": 5174,
      "Bevölkerung": 5175,
      "kür": 5176,
      "60": 5177,
      "gegenwär": 5178,
      "ät": 5179,
      "leistet": 5180,
      "rund": 5181,
      "lässt": 5182,
      "Beziehungen": 5183,
      "tiges": 5184,
      "Staats": 5185,
      "Nor": 5186,
      "Team": 5187,
      "Erweiterung": 5188,
      "RO": 5189,
      "ches": 5190,
      "prak": 5191,
      "Internation": 5192,
      "gleichzeitig": 5193,
      "Verordnung": 5194,
      "Regel": 5195,
      "Sport": 5196,
      "würdig": 5197,
      "heißt": 5198,
      "Aben": 5199,
      "automati": 5200,
      "Verbindung": 5201,
      "Angebot": 5202,
      "reiben": 5203,
      "ordin": 5204,
      "sicherheit": 5205,
      "wachsen": 5206,
      "Russland": 5207,
      "Ris": 5208,
      "anten": 5209,
      "Vereinigten": 5210,
      "rem": 5211,
      "Reise": 5212,
      "Auff": 5213,
      "gemäß": 5214,
      "Terror": 5215,
      "sour": 5216,
      "örper": 5217,
      "Themen": 5218,
      "wichtigen": 5219,
      "inne": 5220,
      "Veran": 5221,
      "zah": 5222,
      "zeugen": 5223,
      "Fuß": 5224,
      "länder": 5225,
      "Fischerei": 5226,
      "haft": 5227,
      "pen": 5228,
      "Entschließung": 5229,
      "Dialog": 5230,
      "verständlich": 5231,
      "Chr": 5232,
      "schön": 5233,
      "jede": 5234,
      "Aufgabe": 5235,
      "Schlussel": 5236,
      "erzie": 5237,
      "abon": 5238,
      "formen": 5239,
      "Beitrag": 5240,
      "bekommen": 5241,
      "ont": 5242,
      "gu": 5243,
      "iges": 5244,
      "Wettbewerbs": 5245,
      "ci": 5246,
      "richtungen": 5247,
      "kleine": 5248,
      "Pri": 5249,
      "nahe": 5250,
      "handlung": 5251,
      "Prot": 5252,
      "amt": 5253,
      "meinen": 5254,
      "Verpflich": 5255,
      "einzig": 5256,
      "Chan": 5257,
      "lok": 5258,
      "mein": 5259,
      "UNDER": 5260,
      "80": 5261,
      "Türkei": 5262,
      "assi": 5263,
      "Kop": 5264,
      "aly": 5265,
      "Förderung": 5266,
      "unabhäng": 5267,
      "licken": 5268,
      "Ital": 5269,
      "AS": 5270,
      "Kampf": 5271,
      "wunder": 5272,
      "höher": 5273,
      "Krise": 5274,
      "Kontrolle": 5275,
      "Ster": 5276,
      "handeln": 5277,
      "unseres": 5278,
      "ban": 5279,
      "bl": 5280,
      "Mitarbeiter": 5281,
      "SCORE": 5282,
      "UNDERSCORE": 5283,
      "bleibt": 5284,
      "Ka": 5285,
      "inst": 5286,
      "wider": 5287,
      "eller": 5288,
      "kn": 5289,
      "uen": 5290,
      "Fr": 5291,
      "bedingungen": 5292,
      "span": 5293,
      "Sen": 5294,
      "heu": 5295,
      "ranzös": 5296,
      "Staat": 5297,
      "Handels": 5298,
      "iden": 5299,
      "AG": 5300,
      "gangenen": 5301,
      "prüfen": 5302,
      "sieht": 5303,
      "jedes": 5304,
      "steuer": 5305,
      "abilität": 5306,
      "hafen": 5307,
      "mie": 5308,
      "gesamt": 5309,
      "ziert": 5310,
      "menten": 5311,
      "äd": 5312,
      "hohe": 5313,
      "Ra": 5314,
      "alter": 5315,
      "treffen": 5316,
      "stag": 5317,
      "rop": 5318,
      "richten": 5319,
      "ersch": 5320,
      "sage": 5321,
      "23": 5322,
      "ix": 5323,
      "Behörden": 5324,
      "ktive": 5325,
      "ES": 5326,
      "Bahn": 5327,
      "ana": 5328,
      "zess": 5329,
      "Kor": 5330,
      "Nutzung": 5331,
      "2006": 5332,
      "Design": 5333,
      "Rom": 5334,
      "vis": 5335,
      "Benutzer": 5336,
      "stark": 5337,
      "Folgen": 5338,
      "Ausschusses": 5339,
      "wirtschaftliche": 5340,
      "own": 5341,
      "enthalt": 5342,
      "yl": 5343,
      "Lösungen": 5344,
      "Damit": 5345,
      "Cl": 5346,
      "Volk": 5347,
      "regel": 5348,
      "Kir": 5349,
      "ales": 5350,
      "Span": 5351,
      "gerne": 5352,
      "Rechn": 5353,
      "gefähr": 5354,
      "sorgen": 5355,
      "Augen": 5356,
      "Lo": 5357,
      "Pr": 5358,
      "wichtigsten": 5359,
      "ette": 5360,
      "bi": 5361,
      "unsch": 5362,
      "Bitte": 5363,
      "stimmungen": 5364,
      "heraus": 5365,
      "zlich": 5366,
      "Liss": 5367,
      "berech": 5368,
      "Wochen": 5369,
      "bald": 5370,
      "rael": 5371,
      "Stunden": 5372,
      "onnen": 5373,
      "Lissabon": 5374,
      "deu": 5375,
      "sektor": 5376,
      "garan": 5377,
      "erweise": 5378,
      "akzep": 5379,
      "ino": 5380,
      "Jan": 5381,
      "schle": 5382,
      "Auswahl": 5383,
      "mehrere": 5384,
      "ließ": 5385,
      "Frankreich": 5386,
      "Tä": 5387,
      "za": 5388,
      "wünschen": 5389,
      "fahrt": 5390,
      "IP": 5391,
      "Hol": 5392,
      "chan": 5393,
      "atten": 5394,
      "spräsident": 5395,
      "Forder": 5396,
      "bezüglich": 5397,
      "nissen": 5398,
      "Arch": 5399,
      "betreffen": 5400,
      "itel": 5401,
      "Juni": 5402,
      "enthält": 5403,
      "ucht": 5404,
      "Verbesserung": 5405,
      "Strand": 5406,
      "Berlin": 5407,
      "hungen": 5408,
      "teile": 5409,
      "ganzen": 5410,
      "ganze": 5411,
      "irgend": 5412,
      "eigene": 5413,
      "Zur": 5414,
      "Gast": 5415,
      "Nord": 5416,
      "Air": 5417,
      "Medi": 5418,
      "fonds": 5419,
      "günst": 5420,
      "gelt": 5421,
      "Macht": 5422,
      "nachhal": 5423,
      "hinsichtlich": 5424,
      "Einf": 5425,
      "AL": 5426,
      "belie": 5427,
      "nungen": 5428,
      "mu": 5429,
      "angemessen": 5430,
      "entwickeln": 5431,
      "Binnenmarkt": 5432,
      "öhn": 5433,
      "wobei": 5434,
      "läu": 5435,
      "tradition": 5436,
      "ermöglichen": 5437,
      "Fach": 5438,
      "brigen": 5439,
      "Aktion": 5440,
      "geeig": 5441,
      "Kern": 5442,
      "splan": 5443,
      "Fehler": 5444,
      "Rep": 5445,
      "Schu": 5446,
      "haup": 5447,
      "Pra": 5448,
      "aufzu": 5449,
      "Go": 5450,
      "derzeit": 5451,
      "vern": 5452,
      "Vis": 5453,
      "Konferenz": 5454,
      "21": 5455,
      "Bro": 5456,
      "oppel": 5457,
      "erlau": 5458,
      "genannten": 5459,
      "trotz": 5460,
      "Anfang": 5461,
      "Notwendig": 5462,
      "integr": 5463,
      "vol": 5464,
      "Bal": 5465,
      "Amer": 5466,
      "rachten": 5467,
      "cker": 5468,
      "ufig": 5469,
      "iten": 5470,
      "mil": 5471,
      "stoff": 5472,
      "Integra": 5473,
      "org": 5474,
      "pfer": 5475,
      "schließend": 5476,
      "Gelegenheit": 5477,
      "Nov": 5478,
      "chter": 5479,
      "hoben": 5480,
      "Wachstum": 5481,
      "ulti": 5482,
      "riebs": 5483,
      "Ferien": 5484,
      "ledig": 5485,
      "häre": 5486,
      "minister": 5487,
      "buch": 5488,
      "erster": 5489,
      "dienst": 5490,
      "Lauf": 5491,
      "Tr": 5492,
      "pfel": 5493,
      "Liefer": 5494,
      "völlig": 5495,
      "Schaffung": 5496,
      "Ober": 5497,
      "Reform": 5498,
      "verpflich": 5499,
      "Gebäu": 5500,
      "Ergebnisse": 5501,
      "indiv": 5502,
      "room": 5503,
      "Car": 5504,
      "zeugt": 5505,
      "Darüber": 5506,
      "Gewalt": 5507,
      "gefunden": 5508,
      "vorschriften": 5509,
      "ail": 5510,
      "Koh": 5511,
      "Tex": 5512,
      "with": 5513,
      "kraft": 5514,
      "akter": 5515,
      "individu": 5516,
      "Mor": 5517,
      "tiven": 5518,
      "fördern": 5519,
      "Verwendung": 5520,
      "isierung": 5521,
      "Information": 5522,
      "zt": 5523,
      "Tage": 5524,
      "Woche": 5525,
      "verwenden": 5526,
      "person": 5527,
      "dürf": 5528,
      "fallen": 5529,
      "verbessern": 5530,
      "Herzen": 5531,
      "Ter": 5532,
      "Voraus": 5533,
      "hne": 5534,
      "Prior": 5535,
      "gessen": 5536,
      "lose": 5537,
      "Italien": 5538,
      "Krieg": 5539,
      "äst": 5540,
      "üsse": 5541,
      "gehören": 5542,
      "enten": 5543,
      "See": 5544,
      "vollen": 5545,
      "elekt": 5546,
      "guten": 5547,
      "ular": 5548,
      "Landwirtschaft": 5549,
      "sätze": 5550,
      "großer": 5551,
      "mäßig": 5552,
      "grundlegen": 5553,
      "verfügen": 5554,
      "CD": 5555,
      "zogen": 5556,
      "Adr": 5557,
      "soziale": 5558,
      "klus": 5559,
      "teten": 5560,
      "bestä": 5561,
      "Notwendigkeit": 5562,
      "verfüg": 5563,
      "Zeitpunkt": 5564,
      "sphäre": 5565,
      "Har": 5566,
      "disku": 5567,
      "verstär": 5568,
      "Familie": 5569,
      "eilen": 5570,
      "König": 5571,
      "Online": 5572,
      "wählen": 5573,
      "Les": 5574,
      "gül": 5575,
      "meinem": 5576,
      "Volks": 5577,
      "licht": 5578,
      "hilfe": 5579,
      "riften": 5580,
      "DE": 5581,
      "dienen": 5582,
      "ähn": 5583,
      "Zwe": 5584,
      "spezif": 5585,
      "leb": 5586,
      "Schwei": 5587,
      "samm": 5588,
      "größten": 5589,
      "Änderungen": 5590,
      "vention": 5591,
      "zunächst": 5592,
      "feld": 5593,
      "Maß": 5594,
      "grenz": 5595,
      "Jugend": 5596,
      "undes": 5597,
      "very": 5598,
      "Sal": 5599,
      "maßnahmen": 5600,
      "gesamte": 5601,
      "effe": 5602,
      "vorhan": 5603,
      "mb": 5604,
      "ausen": 5605,
      "ernst": 5606,
      "Män": 5607,
      "schinen": 5608,
      "bein": 5609,
      "Überein": 5610,
      "Erfahrung": 5611,
      "wenden": 5612,
      "wissenschaft": 5613,
      "Mai": 5614,
      "passen": 5615,
      "Sto": 5616,
      "Beschäftigung": 5617,
      "Wein": 5618,
      "ness": 5619,
      "mobil": 5620,
      "kam": 5621,
      "schieden": 5622,
      "tatsächlich": 5623,
      "Ban": 5624,
      "serv": 5625,
      "Hinter": 5626,
      "uchen": 5627,
      "tie": 5628,
      "ante": 5629,
      "Neben": 5630,
      "sourcen": 5631,
      "Wahr": 5632,
      "Umgebung": 5633,
      "Nieder": 5634,
      "programm": 5635,
      "Vertrags": 5636,
      "schriftlich": 5637,
      "freien": 5638,
      "Sep": 5639,
      "absol": 5640,
      "öffnet": 5641,
      "eindeu": 5642,
      "haupt": 5643,
      "last": 5644,
      "wander": 5645,
      "ausschuss": 5646,
      "neut": 5647,
      "üt": 5648,
      "Mehrheit": 5649,
      "uren": 5650,
      "hindern": 5651,
      "dischen": 5652,
      "Während": 5653,
      "Einführung": 5654,
      "tember": 5655,
      "22": 5656,
      "ehm": 5657,
      "vertreten": 5658,
      "Regierungen": 5659,
      "kü": 5660,
      "Beg": 5661,
      "ott": 5662,
      "Stellung": 5663,
      "Integration": 5664,
      "Zw": 5665,
      "komplet": 5666,
      "begl": 5667,
      "stie": 5668,
      "Dabei": 5669,
      "verstehen": 5670,
      "bauen": 5671,
      "ux": 5672,
      "2005": 5673,
      "Konfli": 5674,
      "frieden": 5675,
      "gener": 5676,
      "äußerst": 5677,
      "medi": 5678,
      "stalt": 5679,
      "okoll": 5680,
      "Kommunik": 5681,
      "Stim": 5682,
      "wesen": 5683,
      "stitution": 5684,
      "ows": 5685,
      "dat": 5686,
      "Technologie": 5687,
      "iko": 5688,
      "schul": 5689,
      "effizien": 5690,
      "xis": 5691,
      "har": 5692,
      "hren": 5693,
      "Vereinbar": 5694,
      "Öffent": 5695,
      "kri": 5696,
      "idar": 5697,
      "tifiz": 5698,
      "bestimmte": 5699,
      "hohen": 5700,
      "bezogen": 5701,
      "Informations": 5702,
      "defin": 5703,
      "Aktivitäten": 5704,
      "istische": 5705,
      "Initiative": 5706,
      "Sprache": 5707,
      "hören": 5708,
      "Anzahl": 5709,
      "Mot": 5710,
      "entde": 5711,
      "somit": 5712,
      "gewährleisten": 5713,
      "text": 5714,
      "beschäf": 5715,
      "istr": 5716,
      "TV": 5717,
      "Bank": 5718,
      "lediglich": 5719,
      "Höhe": 5720,
      "preis": 5721,
      "erkennen": 5722,
      "ds": 5723,
      "Verkehrs": 5724,
      "bringt": 5725,
      "Computer": 5726,
      "ständigen": 5727,
      "nö": 5728,
      "uar": 5729,
      "Wettbewerb": 5730,
      "dringen": 5731,
      "Flughafen": 5732,
      "ühm": 5733,
      "pass": 5734,
      "artige": 5735,
      "pfeh": 5736,
      "versuchen": 5737,
      "ausgestattet": 5738,
      "antwor": 5739,
      "Position": 5740,
      "Komprom": 5741,
      "AP": 5742,
      "nä": 5743,
      "Kommissarin": 5744,
      "stärker": 5745,
      "Dez": 5746,
      "Sicht": 5747,
      "Diskussion": 5748,
      "Programme": 5749,
      "Eng": 5750,
      "setzungen": 5751,
      "Bekämpfung": 5752,
      "Erachten": 5753,
      "schätz": 5754,
      "bestimmten": 5755,
      "Sommer": 5756,
      "Präsidentschaft": 5757,
      "ritts": 5758,
      "Erachtens": 5759,
      "leider": 5760,
      "illa": 5761,
      "dro": 5762,
      "ance": 5763,
      "orf": 5764,
      "Medien": 5765,
      "vorher": 5766,
      "vorliegen": 5767,
      "notwen": 5768,
      "meines": 5769,
      "obwohl": 5770,
      "gelung": 5771,
      "cl": 5772,
      "Metho": 5773,
      "Standpunkt": 5774,
      "Gruppen": 5775,
      "aufgenommen": 5776,
      "70": 5777,
      "zahlreiche": 5778,
      "Dinge": 5779,
      "Kontakt": 5780,
      "September": 5781,
      "Auto": 5782,
      "EL": 5783,
      "Stre": 5784,
      "Basis": 5785,
      "Muse": 5786,
      "woll": 5787,
      "Freiheit": 5788,
      "int": 5789,
      "2004": 5790,
      "sagte": 5791,
      "möglichkeiten": 5792,
      "Jahrhundert": 5793,
      "Stil": 5794,
      "Tat": 5795,
      "erweiter": 5796,
      "zweite": 5797,
      "indust": 5798,
      "page": 5799,
      "Agr": 5800,
      "erhält": 5801,
      "maß": 5802,
      "dient": 5803,
      "vorzu": 5804,
      "Che": 5805,
      "vorgesehen": 5806,
      "Innov": 5807,
      "bien": 5808,
      "erheb": 5809,
      "wurf": 5810,
      "TO": 5811,
      "berg": 5812,
      "stei": 5813,
      "Bestimmungen": 5814,
      "zeuge": 5815,
      "einschließlich": 5816,
      "sprün": 5817,
      "französ": 5818,
      "pre": 5819,
      "Fortschritte": 5820,
      "Punkte": 5821,
      "kennen": 5822,
      "Preise": 5823,
      "Personal": 5824,
      "out": 5825,
      "legung": 5826,
      "lexi": 5827,
      "beru": 5828,
      "Berg": 5829,
      "tien": 5830,
      "außerdem": 5831,
      "sitzen": 5832,
      "Dezember": 5833,
      "einheit": 5834,
      "Schn": 5835,
      "Erklärung": 5836,
      "nommen": 5837,
      "Okt": 5838,
      "reibung": 5839,
      "fal": 5840,
      "ission": 5841,
      "hältnis": 5842,
      "Kr": 5843,
      "gert": 5844,
      "ight": 5845,
      "oben": 5846,
      "Nur": 5847,
      "Stelle": 5848,
      "Film": 5849,
      "Fa": 5850,
      "früher": 5851,
      "solchen": 5852,
      "Server": 5853,
      "agen": 5854,
      "Juli": 5855,
      "betroffen": 5856,
      "gewä": 5857,
      "zäh": 5858,
      "typ": 5859,
      "berühm": 5860,
      "mann": 5861,
      "schnitt": 5862,
      "stände": 5863,
      "alte": 5864,
      "ona": 5865,
      "Vorschriften": 5866,
      "Bemü": 5867,
      "vel": 5868,
      "vollständig": 5869,
      "deten": 5870,
      "dadurch": 5871,
      "insgesamt": 5872,
      "zweiten": 5873,
      "ategorien": 5874,
      "streng": 5875,
      "morgen": 5876,
      "Prü": 5877,
      "gehend": 5878,
      "Alt": 5879,
      "ehe": 5880,
      "gebaut": 5881,
      "Vertrauen": 5882,
      "Dr": 5883,
      "Log": 5884,
      "Aufmerksam": 5885,
      "app": 5886,
      "ausreichen": 5887,
      "bewertungen": 5888,
      "Apart": 5889,
      "einzige": 5890,
      "Gu": 5891,
      "AD": 5892,
      "Gefahr": 5893,
      "stellten": 5894,
      "Gesamt": 5895,
      "iew": 5896,
      "erfahren": 5897,
      "ration": 5898,
      "Anforderungen": 5899,
      "vergangenen": 5900,
      "Ak": 5901,
      "Bildung": 5902,
      "industrie": 5903,
      "198": 5904,
      "Sub": 5905,
      "lige": 5906,
      "Mer": 5907,
      "jün": 5908,
      "Wel": 5909,
      "netz": 5910,
      "tensi": 5911,
      "Küche": 5912,
      "testen": 5913,
      "Entscheidungen": 5914,
      "Aufmerksamkeit": 5915,
      "ützen": 5916,
      "zung": 5917,
      "pla": 5918,
      "wäl": 5919,
      "genießen": 5920,
      "cel": 5921,
      "Transpar": 5922,
      "orn": 5923,
      "Material": 5924,
      "März": 5925,
      "strate": 5926,
      "sprach": 5927,
      "Engl": 5928,
      "dnis": 5929,
      "wirksam": 5930,
      "2003": 5931,
      "ären": 5932,
      "Bilder": 5933,
      "Unternehmens": 5934,
      "lösen": 5935,
      "konzentr": 5936,
      "National": 5937,
      "rang": 5938,
      "Stat": 5939,
      "Gästebewertungen": 5940,
      "Süd": 5941,
      "verkauf": 5942,
      "ologien": 5943,
      "Berichts": 5944,
      "Prinzip": 5945,
      "jewei": 5946,
      "Protokoll": 5947,
      "Agrar": 5948,
      "ON": 5949,
      "Test": 5950,
      "wirken": 5951,
      "Projekte": 5952,
      "Cas": 5953,
      "falt": 5954,
      "gerecht": 5955,
      "abkommen": 5956,
      "Dire": 5957,
      "Präsidenten": 5958,
      "keiner": 5959,
      "alisiert": 5960,
      "Straßen": 5961,
      "Dokument": 5962,
      "Gemeinschafts": 5963,
      "Ir": 5964,
      "wand": 5965,
      "Ansatz": 5966,
      "utter": 5967,
      "Bereiche": 5968,
      "uman": 5969,
      "sonst": 5970,
      "beste": 5971,
      "Anfrage": 5972,
      "fach": 5973,
      "eigentlich": 5974,
      "schau": 5975,
      "Urlaub": 5976,
      "ld": 5977,
      "Ac": 5978,
      "lös": 5979,
      "Arbeitnehmer": 5980,
      "Oktober": 5981,
      "dauer": 5982,
      "pol": 5983,
      "eitet": 5984,
      "Transparenz": 5985,
      "ählen": 5986,
      "cks": 5987,
      "ba": 5988,
      "Tem": 5989,
      "Gesundheits": 5990,
      "Minister": 5991,
      "losen": 5992,
      "Grenzen": 5993,
      "riterien": 5994,
      "Ratspräsident": 5995,
      "anlage": 5996,
      "erwarten": 5997,
      "Stär": 5998,
      "astrop": 5999,
      "eingesetzt": 6000,
      "Arbei": 6001,
      "proble": 6002,
      "27": 6003,
      "arch": 6004,
      "Öffentlichkeit": 6005,
      "konnten": 6006,
      "ters": 6007,
      "häufig": 6008,
      "Januar": 6009,
      "Privat": 6010,
      "tierung": 6011,
      "Amerik": 6012,
      "sprü": 6013,
      "allein": 6014,
      "sinn": 6015,
      "Solidar": 6016,
      "wenige": 6017,
      "ierter": 6018,
      "how": 6019,
      "Tagesordnung": 6020,
      "folgenden": 6021,
      "üb": 6022,
      "lesen": 6023,
      "Wirk": 6024,
      "wichtiger": 6025,
      "perfe": 6026,
      "Aufenthalt": 6027,
      "räum": 6028,
      "mensch": 6029,
      "est": 6030,
      "sprozess": 6031,
      "beziehen": 6032,
      "ummer": 6033,
      "durchgeführt": 6034,
      "wasser": 6035,
      "Meine": 6036,
      "anische": 6037,
      "Aller": 6038,
      "Gel": 6039,
      "benötigen": 6040,
      "kleiner": 6041,
      "Dis": 6042,
      "Regeln": 6043,
      "Untersuch": 6044,
      "Wider": 6045,
      "Firma": 6046,
      "Auftrag": 6047,
      "griffen": 6048,
      "SE": 6049,
      "kennt": 6050,
      "Spanien": 6051,
      "optim": 6052,
      "größte": 6053,
      "europäischer": 6054,
      "Analy": 6055,
      "Sektor": 6056,
      "unmittel": 6057,
      "heben": 6058,
      "Inst": 6059,
      "Nationen": 6060,
      "stein": 6061,
      "Bundes": 6062,
      "Lebensmittel": 6063,
      "Flü": 6064,
      "mbH": 6065,
      "Linie": 6066,
      "aktuellen": 6067,
      "kannst": 6068,
      "geber": 6069,
      "getan": 6070,
      "Investitionen": 6071,
      "Schwier": 6072,
      "danke": 6073,
      "Liber": 6074,
      "EG": 6075,
      "laufen": 6076,
      "2001": 6077,
      "cu": 6078,
      "Zun": 6079,
      "Mark": 6080,
      "Empfeh": 6081,
      "West": 6082,
      "Pan": 6083,
      "dank": 6084,
      "Sinne": 6085,
      "schu": 6086,
      "Do": 6087,
      "Hins": 6088,
      "lichkeiten": 6089,
      "Hinsicht": 6090,
      "Gründen": 6091,
      "Mobil": 6092,
      "drücklich": 6093,
      "ktiven": 6094,
      "ihres": 6095,
      "ursprün": 6096,
      "rauch": 6097,
      "Kennt": 6098,
      "Veränder": 6099,
      "kontroll": 6100,
      "erv": 6101,
      "wortern": 6102,
      "mosphäre": 6103,
      "service": 6104,
      "geworden": 6105,
      "kunden": 6106,
      "geschä": 6107,
      "Auffassung": 6108,
      "zeichnung": 6109,
      "unk": 6110,
      "kat": 6111,
      "bilden": 6112,
      "Bedürf": 6113,
      "sofort": 6114,
      "erneut": 6115,
      "geschaffen": 6116,
      "Gipfel": 6117,
      "dete": 6118,
      "eher": 6119,
      "Aufgaben": 6120,
      "Ca": 6121,
      "Sache": 6122,
      "begrüße": 6123,
      "ton": 6124,
      "Nr": 6125,
      "Windows": 6126,
      "sh": 6127,
      "PC": 6128,
      "zieren": 6129,
      "Qual": 6130,
      "GmbH": 6131,
      "Rede": 6132,
      "veröffentlich": 6133,
      "beteil": 6134,
      "Tur": 6135,
      "übrigen": 6136,
      "una": 6137,
      "paar": 6138,
      "angesichts": 6139,
      "Israel": 6140,
      "reig": 6141,
      "schönen": 6142,
      "Republik": 6143,
      "Bewer": 6144,
      "Heute": 6145,
      "install": 6146,
      "sur": 6147,
      "Ereig": 6148,
      "ime": 6149,
      "schä": 6150,
      "90": 6151,
      "steigen": 6152,
      "gangs": 6153,
      "ines": 6154,
      "tag": 6155,
      "wort": 6156,
      "lernen": 6157,
      "Tab": 6158,
      "Schlusselwortern": 6159,
      "vergessen": 6160,
      "Organisation": 6161,
      "werte": 6162,
      "Sitzung": 6163,
      "zeichnen": 6164,
      "Glob": 6165,
      "dner": 6166,
      "fo": 6167,
      "veran": 6168,
      "ging": 6169,
      "öffentliche": 6170,
      "zahlen": 6171,
      "bewusst": 6172,
      "Städ": 6173,
      "Ressourcen": 6174,
      "entsprechenden": 6175,
      "diejenigen": 6176,
      "Apr": 6177,
      "ograf": 6178,
      "Vertreter": 6179,
      "reib": 6180,
      "hafte": 6181,
      "mat": 6182,
      "Ren": 6183,
      "beitragen": 6184,
      "Pap": 6185,
      "wechsel": 6186,
      "behandelt": 6187,
      "Beteil": 6188,
      "Folge": 6189,
      "Völ": 6190,
      "rägen": 6191,
      "Home": 6192,
      "umen": 6193,
      "sequ": 6194,
      "Armut": 6195,
      "Nachbar": 6196,
      "Änderung": 6197,
      "Fällen": 6198,
      "Bot": 6199,
      "Afri": 6200,
      "Kn": 6201,
      "verstanden": 6202,
      "2002": 6203,
      "Dateien": 6204,
      "bedingt": 6205,
      "Spa": 6206,
      "belieb": 6207,
      "west": 6208,
      "ausgezeich": 6209,
      "ständige": 6210,
      "Bemühungen": 6211,
      "Bad": 6212,
      "Unterschie": 6213,
      "spannen": 6214,
      "Spieler": 6215,
      "behalten": 6216,
      "fühl": 6217,
      "auern": 6218,
      "eicher": 6219,
      "Stabilität": 6220,
      "igh": 6221,
      "Video": 6222,
      "zuführen": 6223,
      "Behandlung": 6224,
      "senden": 6225,
      "unten": 6226,
      "Monaten": 6227,
      "gewesen": 6228,
      "Werte": 6229,
      "züg": 6230,
      "Bürgern": 6231,
      "Dritt": 6232,
      "Gebäude": 6233,
      "kannt": 6234,
      "best": 6235,
      "haf": 6236,
      "Bü": 6237,
      "Vertei": 6238,
      "scheinlich": 6239,
      "Tre": 6240,
      "demokratischen": 6241,
      "see": 6242,
      "Rel": 6243,
      "igur": 6244,
      "gruppe": 6245,
      "wil": 6246,
      "beschrän": 6247,
      "verhindern": 6248,
      "langfrist": 6249,
      "berücksichtigt": 6250,
      "erfolgt": 6251,
      "Garten": 6252,
      "sichern": 6253,
      "Bürgerinnen": 6254,
      "Bereit": 6255,
      "begrüßen": 6256,
      "Tagen": 6257,
      "iveau": 6258,
      "Wunsch": 6259,
      "mark": 6260,
      "alismus": 6261,
      "Inhalt": 6262,
      "Exper": 6263,
      "chem": 6264,
      "hätten": 6265,
      "ologischen": 6266,
      "November": 6267,
      "gewiesen": 6268,
      "va": 6269,
      "Nacht": 6270,
      "frastruktur": 6271,
      "Doppel": 6272,
      "technischen": 6273,
      "offiz": 6274,
      "ierenden": 6275,
      "Ziv": 6276,
      "Wohl": 6277,
      "not": 6278,
      "Telefon": 6279,
      "Atmosphäre": 6280,
      "IC": 6281,
      "liefer": 6282,
      "ama": 6283,
      "Pa": 6284,
      "institution": 6285,
      "Up": 6286,
      "anderem": 6287,
      "bezieh": 6288,
      "Koordin": 6289,
      "xim": 6290,
      "Restaurants": 6291,
      "tigungs": 6292,
      "indest": 6293,
      "ces": 6294,
      "lock": 6295,
      "500": 6296,
      "Finanzierung": 6297,
      "Trans": 6298,
      "zufrieden": 6299,
      "richtige": 6300,
      "Prozent": 6301,
      "stehenden": 6302,
      "sent": 6303,
      "dri": 6304,
      "förder": 6305,
      "zieht": 6306,
      "äte": 6307,
      "anders": 6308,
      "Schließ": 6309,
      "staltung": 6310,
      "weist": 6311,
      "Minder": 6312,
      "versucht": 6313,
      "gemeinschaft": 6314,
      "April": 6315,
      "fügen": 6316,
      "stieg": 6317,
      "tritt": 6318,
      "Erfahrungen": 6319,
      "Milliar": 6320,
      "nungs": 6321,
      "Konz": 6322,
      "innern": 6323,
      "Golf": 6324,
      "gst": 6325,
      "geschrieben": 6326,
      "Grö": 6327,
      "Beginn": 6328,
      "Natürlich": 6329,
      "Vergangen": 6330,
      "sorg": 6331,
      "sechs": 6332,
      "angeboten": 6333,
      "Det": 6334,
      "Modell": 6335,
      "ellschaften": 6336,
      "modernen": 6337,
      "Rechtsvorschriften": 6338,
      "historischen": 6339,
      "bemü": 6340,
      "legten": 6341,
      "ose": 6342,
      "moderne": 6343,
      "Instal": 6344,
      "standard": 6345,
      "etc": 6346,
      "Wissenschaft": 6347,
      "hervorragen": 6348,
      "tiver": 6349,
      "überhaupt": 6350,
      "vereinbar": 6351,
      "Lassen": 6352,
      "erfüllen": 6353,
      "ps": 6354,
      "deutschen": 6355,
      "strateg": 6356,
      "stausch": 6357,
      "Körper": 6358,
      "rück": 6359,
      "Verfassung": 6360,
      "EUR": 6361,
      "Gerichts": 6362,
      "erklärt": 6363,
      "wandel": 6364,
      "braucht": 6365,
      "verantwortlich": 6366,
      "zahlreichen": 6367,
      "sü": 6368,
      "kra": 6369,
      "mag": 6370,
      "schung": 6371,
      "warum": 6372,
      "sigen": 6373,
      "Praxis": 6374,
      "wind": 6375,
      "getroffen": 6376,
      "Fäh": 6377,
      "Firmen": 6378,
      "säm": 6379,
      "usw": 6380,
      "gruppen": 6381,
      "sorgung": 6382,
      "Terrorismus": 6383,
      "Lehr": 6384,
      "welches": 6385,
      "achtet": 6386,
      "Öst": 6387,
      "bra": 6388,
      "karte": 6389,
      "ünf": 6390,
      "kap": 6391,
      "intensi": 6392,
      "Aspekte": 6393,
      "26": 6394,
      "uellen": 6395,
      "fläche": 6396,
      "sagt": 6397,
      "Vergangenheit": 6398,
      "istan": 6399,
      "Sym": 6400,
      "Sterne": 6401,
      "Zeichen": 6402,
      "Kredit": 6403,
      "redu": 6404,
      "ützt": 6405,
      "Zentral": 6406,
      "user": 6407,
      "othe": 6408,
      "holen": 6409,
      "beträ": 6410,
      "italien": 6411,
      "flü": 6412,
      "lief": 6413,
      "erwartet": 6414,
      "Adresse": 6415,
      "jeweiligen": 6416,
      "entsprechend": 6417,
      "führte": 6418,
      "iness": 6419,
      "neues": 6420,
      "Winter": 6421,
      "bre": 6422,
      "schützen": 6423,
      "stets": 6424,
      "Rats": 6425,
      "stellte": 6426,
      "Sonder": 6427,
      "Viele": 6428,
      "Zweitens": 6429,
      "yer": 6430,
      "befür": 6431,
      "til": 6432,
      "aren": 6433,
      "bol": 6434,
      "Beruf": 6435,
      "losigkeit": 6436,
      "vic": 6437,
      "OS": 6438,
      "Mann": 6439,
      "bus": 6440,
      "jem": 6441,
      "verz": 6442,
      "ynam": 6443,
      "komfort": 6444,
      "Don": 6445,
      "ses": 6446,
      "innov": 6447,
      "Cor": 6448,
      "verpflichtet": 6449,
      "zusetzen": 6450,
      "Paris": 6451,
      "Fer": 6452,
      "Zivil": 6453,
      "Agentur": 6454,
      "ution": 6455,
      "Ost": 6456,
      "Schritte": 6457,
      "endlich": 6458,
      "außerhalb": 6459,
      "schlag": 6460,
      "Fisch": 6461,
      "Leit": 6462,
      "gekommen": 6463,
      "Bestand": 6464,
      "Opfer": 6465,
      "automatisch": 6466,
      "Besonder": 6467,
      "zumindest": 6468,
      "beginnen": 6469,
      "Instrument": 6470,
      "izi": 6471,
      "Berichterstatterin": 6472,
      "tist": 6473,
      "Schla": 6474,
      "ison": 6475,
      "orie": 6476,
      "Systems": 6477,
      "Angelegenheit": 6478,
      "fällt": 6479,
      "Parteien": 6480,
      "seines": 6481,
      "hilfen": 6482,
      "28": 6483,
      "Star": 6484,
      "Rot": 6485,
      "Spezial": 6486,
      "exist": 6487,
      "ownlo": 6488,
      "vorhanden": 6489,
      "zeiten": 6490,
      "chtung": 6491,
      "wahrscheinlich": 6492,
      "igin": 6493,
      "erlaubt": 6494,
      "Schwer": 6495,
      "persönlichen": 6496,
      "barer": 6497,
      "länger": 6498,
      "verab": 6499,
      "Dazu": 6500,
      "ano": 6501,
      "amerikanischen": 6502,
      "Post": 6503,
      "hle": 6504,
      "fu": 6505,
      "ausschließlich": 6506,
      "Menschenrechts": 6507,
      "www": 6508,
      "heutigen": 6509,
      "Management": 6510,
      "letzte": 6511,
      "genug": 6512,
      "fur": 6513,
      "Verwaltung": 6514,
      "Schlüssel": 6515,
      "Allerdings": 6516,
      "Vergleich": 6517,
      "genutzt": 6518,
      "Obje": 6519,
      "Rea": 6520,
      "Sign": 6521,
      "tage": 6522,
      "Angelegenheiten": 6523,
      "mögen": 6524,
      "Berat": 6525,
      "Stellen": 6526,
      "Gesprä": 6527,
      "Schwierigkeiten": 6528,
      "fil": 6529,
      "politisch": 6530,
      "Archite": 6531,
      "Lux": 6532,
      "Dan": 6533,
      "erinnern": 6534,
      "IM": 6535,
      "schöne": 6536,
      "ID": 6537,
      "win": 6538,
      "General": 6539,
      "Einige": 6540,
      "erstör": 6541,
      "Herausforderungen": 6542,
      "Solidarität": 6543,
      "from": 6544,
      "Einrichtung": 6545,
      "Betriebs": 6546,
      "iö": 6547,
      "Dann": 6548,
      "Forschungs": 6549,
      "getragen": 6550,
      "Denn": 6551,
      "weiten": 6552,
      "Club": 6553,
      "selben": 6554,
      "Aug": 6555,
      "modern": 6556,
      "bessere": 6557,
      "kämpfen": 6558,
      "Nun": 6559,
      "matisch": 6560,
      "Ihres": 6561,
      "elektron": 6562,
      "reicht": 6563,
      "Kri": 6564,
      "erkennung": 6565,
      "OR": 6566,
      "verurs": 6567,
      "Krank": 6568,
      "AM": 6569,
      "Annahme": 6570,
      "gerungen": 6571,
      "uell": 6572,
      "illeg": 6573,
      "dre": 6574,
      "here": 6575,
      "van": 6576,
      "mitten": 6577,
      "enze": 6578,
      "Künst": 6579,
      "AC": 6580,
      "natür": 6581,
      "prüft": 6582,
      "privaten": 6583,
      "eingesch": 6584,
      "gewöhn": 6585,
      "bitten": 6586,
      "Sehen": 6587,
      "agieren": 6588,
      "tt": 6589,
      "eicht": 6590,
      "verkehrs": 6591,
      "übernehmen": 6592,
      "immern": 6593,
      "fälle": 6594,
      "Soll": 6595,
      "Tier": 6596,
      "Transport": 6597,
      "don": 6598,
      "Bade": 6599,
      "schreiben": 6600,
      "forderung": 6601,
      "Get": 6602,
      "zukünf": 6603,
      "1999": 6604,
      "Österreich": 6605,
      "Ander": 6606,
      "Produkten": 6607,
      "dra": 6608,
      "allgemeinen": 6609,
      "Eigent": 6610,
      "strengungen": 6611,
      "Kauf": 6612,
      "EC": 6613,
      "entgegen": 6614,
      "Anti": 6615,
      "indungen": 6616,
      "Arbeitsplätze": 6617,
      "ites": 6618,
      "Ja": 6619,
      "fangen": 6620,
      "konom": 6621,
      "digt": 6622,
      "uner": 6623,
      "Regierungs": 6624,
      "komplex": 6625,
      "Christ": 6626,
      "you": 6627,
      "off": 6628,
      "rad": 6629,
      "nachten": 6630,
      "schreiten": 6631,
      "äre": 6632,
      "gebiet": 6633,
      "Mittelme": 6634,
      "ehemal": 6635,
      "freie": 6636,
      "ständen": 6637,
      "zudem": 6638,
      "deine": 6639,
      "darstellt": 6640,
      "haften": 6641,
      "Falls": 6642,
      "Antrag": 6643,
      "unt": 6644,
      "ala": 6645,
      "beein": 6646,
      "etten": 6647,
      "Mün": 6648,
      "Verkauf": 6649,
      "imp": 6650,
      "zeugung": 6651,
      "begrenz": 6652,
      "Organisationen": 6653,
      "Schiff": 6654,
      "beide": 6655,
      "Waren": 6656,
      "Trotz": 6657,
      "dische": 6658,
      "ollar": 6659,
      "Bi": 6660,
      "ots": 6661,
      "ya": 6662,
      "Bis": 6663,
      "ystemen": 6664,
      "Ausschuß": 6665,
      "Hä": 6666,
      "ulieren": 6667,
      "Leute": 6668,
      "profession": 6669,
      "Obwohl": 6670,
      "entwickel": 6671,
      "Milliarden": 6672,
      "konstru": 6673,
      "voraus": 6674,
      "uern": 6675,
      "freuen": 6676,
      "vermei": 6677,
      "Detail": 6678,
      "Jap": 6679,
      "Erstens": 6680,
      "tigten": 6681,
      "els": 6682,
      "ball": 6683,
      "view": 6684,
      "ong": 6685,
      "jüng": 6686,
      "Site": 6687,
      "benutzt": 6688,
      "mach": 6689,
      "ftung": 6690,
      "Verpflichtungen": 6691,
      "Nachfol": 6692,
      "destens": 6693,
      "dringend": 6694,
      "Karte": 6695,
      "leitet": 6696,
      "eindeutig": 6697,
      "fän": 6698,
      "anal": 6699,
      "chtet": 6700,
      "Ist": 6701,
      "Kriterien": 6702,
      "Systeme": 6703,
      "Ins": 6704,
      "Sam": 6705,
      "Hoff": 6706,
      "Einfluss": 6707,
      "Überwach": 6708,
      "dis": 6709,
      "Bur": 6710,
      "bedarf": 6711,
      "mitte": 6712,
      "innt": 6713,
      "lass": 6714,
      "Klein": 6715,
      "Verhalten": 6716,
      "Tätigkeit": 6717,
      "Anstrengungen": 6718,
      "ET": 6719,
      "ologische": 6720,
      "bian": 6721,
      "lebt": 6722,
      "Licht": 6723,
      "yr": 6724,
      "Falle": 6725,
      "Öl": 6726,
      "tert": 6727,
      "park": 6728,
      "langt": 6729,
      "Hause": 6730,
      "comp": 6731,
      "bild": 6732,
      "kategorien": 6733,
      "eingehen": 6734,
      "umfan": 6735,
      "größere": 6736,
      "Kommunikation": 6737,
      "Grie": 6738,
      "une": 6739,
      "35": 6740,
      "sprogramm": 6741,
      "führten": 6742,
      "weite": 6743,
      "Zustimmung": 6744,
      "enter": 6745,
      "militär": 6746,
      "Eind": 6747,
      "Termin": 6748,
      "Funktionen": 6749,
      "enor": 6750,
      "stoffe": 6751,
      "unbedingt": 6752,
      "beschlossen": 6753,
      "Dom": 6754,
      "zusätzliche": 6755,
      "kaum": 6756,
      "Charakter": 6757,
      "Hostel": 6758,
      "anti": 6759,
      "roso": 6760,
      "stren": 6761,
      "Entschließungs": 6762,
      "entspricht": 6763,
      "Völker": 6764,
      "loc": 6765,
      "ckung": 6766,
      "ausger": 6767,
      "überzeugt": 6768,
      "Nutzen": 6769,
      "Dro": 6770,
      "vorgelegt": 6771,
      "akte": 6772,
      "Mitgliedstaat": 6773,
      "Anerkennung": 6774,
      "stimme": 6775,
      "selbstverständlich": 6776,
      "Empf": 6777,
      "Veranstalt": 6778,
      "pool": 6779,
      "genannt": 6780,
      "Idee": 6781,
      "Vereinbarung": 6782,
      "pal": 6783,
      "ku": 6784,
      "nationale": 6785,
      "Erd": 6786,
      "Wann": 6787,
      "Wahlen": 6788,
      "wesentlich": 6789,
      "bürger": 6790,
      "altungs": 6791,
      "Holz": 6792,
      "Dollar": 6793,
      "Zwischen": 6794,
      "besitz": 6795,
      "ierende": 6796,
      "Altern": 6797,
      "bad": 6798,
      "gründet": 6799,
      "Waffen": 6800,
      "mär": 6801,
      "eleg": 6802,
      "spann": 6803,
      "berücksichtigen": 6804,
      "erwähnt": 6805,
      "aktuelle": 6806,
      "spiele": 6807,
      "stattung": 6808,
      "Pati": 6809,
      "Boden": 6810,
      "sofern": 6811,
      "hinweisen": 6812,
      "angegeben": 6813,
      "mindestens": 6814,
      "Sprachen": 6815,
      "eister": 6816,
      "Glück": 6817,
      "itieren": 6818,
      "glauben": 6819,
      "lern": 6820,
      "herunter": 6821,
      "Mitte": 6822,
      "gezeigt": 6823,
      "Netzwerk": 6824,
      "unterschiedlichen": 6825,
      "Ausbildung": 6826,
      "verfügbar": 6827,
      "Hal": 6828,
      "online": 6829,
      "spunkt": 6830,
      "Inhalte": 6831,
      "Fran": 6832,
      "Aufnahme": 6833,
      "Durchführung": 6834,
      "stri": 6835,
      "izei": 6836,
      "invest": 6837,
      "bru": 6838,
      "stil": 6839,
      "Besucher": 6840,
      "Richtlinien": 6841,
      "zentrum": 6842,
      "Hintergrund": 6843,
      "Ze": 6844,
      "entschieden": 6845,
      "hochwer": 6846,
      "Indi": 6847,
      "schine": 6848,
      "mehreren": 6849,
      "liefert": 6850,
      "Mitteilung": 6851,
      "extre": 6852,
      "spart": 6853,
      "Elekt": 6854,
      "29": 6855,
      "entsprechende": 6856,
      "mitglie": 6857,
      "ufen": 6858,
      "Organ": 6859,
      "Lond": 6860,
      "leiten": 6861,
      "erziel": 6862,
      "Abschluss": 6863,
      "Ba": 6864,
      "Ausgaben": 6865,
      "Konflikt": 6866,
      "oss": 6867,
      "Leistungs": 6868,
      "Infrastruktur": 6869,
      "Immobil": 6870,
      "gehalten": 6871,
      "ästinen": 6872,
      "iens": 6873,
      "Osten": 6874,
      "Kooper": 6875,
      "human": 6876,
      "kund": 6877,
      "binden": 6878,
      "ary": 6879,
      "Anspruch": 6880,
      "seiten": 6881,
      "197": 6882,
      "45": 6883,
      "arischen": 6884,
      "hoffen": 6885,
      "oking": 6886,
      "nachdem": 6887,
      "Technologien": 6888,
      "Vorteile": 6889,
      "sichten": 6890,
      "Dist": 6891,
      "London": 6892,
      "derzei": 6893,
      "Ven": 6894,
      "uelle": 6895,
      "ergreifen": 6896,
      "artigen": 6897,
      "benutzen": 6898,
      "ash": 6899,
      "schlossen": 6900,
      "Währung": 6901,
      "angesprochen": 6902,
      "Sil": 6903,
      "Voll": 6904,
      "Kompromiss": 6905,
      "Abend": 6906,
      "char": 6907,
      "far": 6908,
      "Schaden": 6909,
      "August": 6910,
      "euch": 6911,
      "akzeptieren": 6912,
      "anzen": 6913,
      "Schlaf": 6914,
      "bestimmt": 6915,
      "Titel": 6916,
      "technische": 6917,
      "bilität": 6918,
      "Lizen": 6919,
      "Sonnen": 6920,
      "Schwe": 6921,
      "besonderen": 6922,
      "Mensch": 6923,
      "My": 6924,
      "koh": 6925,
      "eingerichtet": 6926,
      "Einkauf": 6927,
      "rechten": 6928,
      "Paket": 6929,
      "ors": 6930,
      "Super": 6931,
      "Partnerschaft": 6932,
      "sicherzustellen": 6933,
      "geeignet": 6934,
      "hy": 6935,
      "gleiche": 6936,
      "gten": 6937,
      "iet": 6938,
      "Irak": 6939,
      "kommenden": 6940,
      "DV": 6941,
      "Nahr": 6942,
      "pfehlen": 6943,
      "führer": 6944,
      "siehe": 6945,
      "bestehenden": 6946,
      "rug": 6947,
      "Bemerk": 6948,
      "näher": 6949,
      "Fakt": 6950,
      "tlichen": 6951,
      "Anwendungen": 6952,
      "ens": 6953,
      "warten": 6954,
      "dul": 6955,
      "Kritik": 6956,
      "low": 6957,
      "Homepage": 6958,
      "ownload": 6959,
      "lieben": 6960,
      "Zeitraum": 6961,
      "Konzept": 6962,
      "unkten": 6963,
      "erzielt": 6964,
      "Beitritt": 6965,
      "Zunächst": 6966,
      "Mio": 6967,
      "tain": 6968,
      "gros": 6969,
      "Schließlich": 6970,
      "gewogen": 6971,
      "ori": 6972,
      "Griechen": 6973,
      "gelöst": 6974,
      "Reformen": 6975,
      "zeption": 6976,
      "swert": 6977,
      "systeme": 6978,
      "SS": 6979,
      "bele": 6980,
      "stechn": 6981,
      "Suche": 6982,
      "positiv": 6983,
      "Wander": 6984,
      "lätzen": 6985,
      "notwendigen": 6986,
      "läuft": 6987,
      "schlä": 6988,
      "Unterkategorien": 6989,
      "Straße": 6990,
      "Einrichtungen": 6991,
      "Zudem": 6992,
      "mes": 6993,
      "Haltung": 6994,
      "ischem": 6995,
      "wegung": 6996,
      "freiheit": 6997,
      "liebe": 6998,
      "ull": 6999,
      "nega": 7000,
      "Banken": 7001,
      "kamen": 7002,
      "festgelegt": 7003,
      "Wa": 7004,
      "erfüllt": 7005,
      "geändert": 7006,
      "globalen": 7007,
      "nütz": 7008,
      "tierten": 7009,
      "möglicherweise": 7010,
      "Vorbereit": 7011,
      "gerin": 7012,
      "ipp": 7013,
      "pft": 7014,
      "reiber": 7015,
      "russ": 7016,
      "zweif": 7017,
      "issionen": 7018,
      "umgesetzt": 7019,
      "Wettbewerbsfähigkeit": 7020,
      "Presse": 7021,
      "kel": 7022,
      "anlagen": 7023,
      "schlagen": 7024,
      "bereitet": 7025,
      "chehen": 7026,
      "voller": 7027,
      "Kenntnis": 7028,
      "ons": 7029,
      "Business": 7030,
      "Qualitäts": 7031,
      "zuletzt": 7032,
      "finanziellen": 7033,
      "werke": 7034,
      "tierte": 7035,
      "anderes": 7036,
      "Tor": 7037,
      "Barcel": 7038,
      "Leg": 7039,
      "Produktions": 7040,
      "Bran": 7041,
      "Monate": 7042,
      "300": 7043,
      "Akt": 7044,
      "empfehlen": 7045,
      "nieder": 7046,
      "lands": 7047,
      "Meter": 7048,
      "elegan": 7049,
      "qual": 7050,
      "trägt": 7051,
      "jene": 7052,
      "Hafen": 7053,
      "Chance": 7054,
      "Phil": 7055,
      "Komfort": 7056,
      "vin": 7057,
      "Ham": 7058,
      "Autom": 7059,
      "klicken": 7060,
      "Pass": 7061,
      "Oper": 7062,
      "Hy": 7063,
      "ms": 7064,
      "brit": 7065,
      "Arten": 7066,
      "Wo": 7067,
      "ica": 7068,
      "Gut": 7069,
      "zeichen": 7070,
      "Dienste": 7071,
      "but": 7072,
      "uropa": 7073,
      "weils": 7074,
      "Vielfalt": 7075,
      "vermeiden": 7076,
      "Vi": 7077,
      "jederzeit": 7078,
      "Vier": 7079,
      "eien": 7080,
      "Febru": 7081,
      "rahmen": 7082,
      "real": 7083,
      "ograph": 7084,
      "haber": 7085,
      "stärken": 7086,
      "swürdig": 7087,
      "schwierig": 7088,
      "verlei": 7089,
      "gesundheit": 7090,
      "Sw": 7091,
      "Kindern": 7092,
      "Zweck": 7093,
      "famil": 7094,
      "LE": 7095,
      "welcher": 7096,
      "mand": 7097,
      "Iden": 7098,
      "Fonds": 7099,
      "Tri": 7100,
      "flug": 7101,
      "ampag": 7102,
      "tigkeiten": 7103,
      "Kamer": 7104,
      "Wege": 7105,
      "rufen": 7106,
      "ließen": 7107,
      "ara": 7108,
      "ulierung": 7109,
      "tischer": 7110,
      "Just": 7111,
      "sicherlich": 7112,
      "stattfinden": 7113,
      "eingeschrän": 7114,
      "bro": 7115,
      "darunter": 7116,
      "Mich": 7117,
      "No": 7118,
      "verfolgen": 7119,
      "Hersteller": 7120,
      "Fo": 7121,
      "Stimme": 7122,
      "leisch": 7123,
      "Demokra": 7124,
      "angezeigt": 7125,
      "jeweils": 7126,
      "gelangen": 7127,
      "gewün": 7128,
      "spor": 7129,
      "Schweiz": 7130,
      "besuchen": 7131,
      "Grundsatz": 7132,
      "Technik": 7133,
      "gelassen": 7134,
      "einiger": 7135,
      "Well": 7136,
      "Menge": 7137,
      "übernachten": 7138,
      "Besitz": 7139,
      "britann": 7140,
      "Ther": 7141,
      "entweder": 7142,
      "Zer": 7143,
      "Webseite": 7144,
      "bruch": 7145,
      "Analyse": 7146,
      "tour": 7147,
      "eg": 7148,
      "Maschinen": 7149,
      "erzielen": 7150,
      "stands": 7151,
      "spielt": 7152,
      "zählen": 7153,
      "tief": 7154,
      "Dritten": 7155,
      "änden": 7156,
      "kenn": 7157,
      "wanderung": 7158,
      "Arbeiten": 7159,
      "tere": 7160,
      "Abschließend": 7161,
      "leistung": 7162,
      "Fen": 7163,
      "Leistungen": 7164,
      "Februar": 7165,
      "wohner": 7166,
      "ständigkeit": 7167,
      "ergän": 7168,
      "Fel": 7169,
      "Instrumente": 7170,
      "konferenz": 7171,
      "wollte": 7172,
      "Krä": 7173,
      "Moment": 7174,
      "spoliti": 7175,
      "Risiko": 7176,
      "Forderung": 7177,
      "dex": 7178,
      "erleben": 7179,
      "alifiz": 7180,
      "Verhältnis": 7181,
      "verbessert": 7182,
      "Band": 7183,
      "liz": 7184,
      "entstehen": 7185,
      "klare": 7186,
      "spie": 7187,
      "Berichte": 7188,
      "behör": 7189,
      "Effe": 7190,
      "Mas": 7191,
      "teilweise": 7192,
      "chmal": 7193,
      "Regelung": 7194,
      "links": 7195,
      "Status": 7196,
      "räume": 7197,
      "Vo": 7198,
      "ón": 7199,
      "Verwaltungs": 7200,
      "staatlichen": 7201,
      "ction": 7202,
      "vertrag": 7203,
      "AK": 7204,
      "zone": 7205,
      "oph": 7206,
      "Frem": 7207,
      "Bon": 7208,
      "Kol": 7209,
      "plätze": 7210,
      "klass": 7211,
      "ausdrücklich": 7212,
      "End": 7213,
      "log": 7214,
      "verläss": 7215,
      "erhöhen": 7216,
      "chines": 7217,
      "Vorgehen": 7218,
      "erstellt": 7219,
      "instru": 7220,
      "Initiativen": 7221,
      "31": 7222,
      "Moder": 7223,
      "speziell": 7224,
      "Teile": 7225,
      "alisieren": 7226,
      "richtigen": 7227,
      "antworten": 7228,
      "Künstler": 7229,
      "Leistung": 7230,
      "betonen": 7231,
      "tic": 7232,
      "Vereinten": 7233,
      "Abgeordnete": 7234,
      "Jetzt": 7235,
      "Ruhe": 7236,
      "absolut": 7237,
      "Zweifel": 7238,
      "Herstellung": 7239,
      "mittler": 7240,
      "Servic": 7241,
      "LAN": 7242,
      "peratur": 7243,
      "Tradition": 7244,
      "Klimawandel": 7245,
      "Großbritann": 7246,
      "mack": 7247,
      "schrän": 7248,
      "Grenz": 7249,
      "DI": 7250,
      "mail": 7251,
      "Sinn": 7252,
      "informieren": 7253,
      "Beitritts": 7254,
      "möglichst": 7255,
      "ieht": 7256,
      "dium": 7257,
      "ath": 7258,
      "teren": 7259,
      "funktioniert": 7260,
      "ünen": 7261,
      "licherweise": 7262,
      "wären": 7263,
      "that": 7264,
      "minist": 7265,
      "Beschl": 7266,
      "Installation": 7267,
      "lanzen": 7268,
      "Download": 7269,
      "hängt": 7270,
      "Plen": 7271,
      "Unabhäng": 7272,
      "karten": 7273,
      "Leider": 7274,
      "Can": 7275,
      "seh": 7276,
      "Kapital": 7277,
      "fassen": 7278,
      "grat": 7279,
      "schech": 7280,
      "sauber": 7281,
      "MS": 7282,
      "Not": 7283,
      "Pen": 7284,
      "endet": 7285,
      "Betrieb": 7286,
      "Veränderungen": 7287,
      "val": 7288,
      "Multi": 7289,
      "gewinnen": 7290,
      "196": 7291,
      "kräf": 7292,
      "PS": 7293,
      "grammen": 7294,
      "gefordert": 7295,
      "kop": 7296,
      "verrin": 7297,
      "prüfung": 7298,
      "Standards": 7299,
      "Vielen": 7300,
      "Engagement": 7301,
      "qualität": 7302,
      "mension": 7303,
      "darstellen": 7304,
      "Herz": 7305,
      "Flexi": 7306,
      "Zeiten": 7307,
      "Angaben": 7308,
      "ude": 7309,
      "fähig": 7310,
      "Ratsvor": 7311,
      "hindert": 7312,
      "ffet": 7313,
      "engl": 7314,
      "iß": 7315,
      "Gas": 7316,
      "lokalen": 7317,
      "dagegen": 7318,
      "Begriff": 7319,
      "ökonom": 7320,
      "Warum": 7321,
      "lam": 7322,
      "Iran": 7323,
      "konkrete": 7324,
      "quem": 7325,
      "statten": 7326,
      "vi": 7327,
      "erleich": 7328,
      "zuvor": 7329,
      "anspruch": 7330,
      "öffnen": 7331,
      "nennen": 7332,
      "wenigen": 7333,
      "Anteil": 7334,
      "Ausgang": 7335,
      "Aufbau": 7336,
      "Absatz": 7337,
      "Eisen": 7338,
      "mögliche": 7339,
      "kulturellen": 7340,
      "punkte": 7341,
      "Ant": 7342,
      "Brüssel": 7343,
      "Japan": 7344,
      "can": 7345,
      "Hauses": 7346,
      "Gebieten": 7347,
      "äufer": 7348,
      "frie": 7349,
      "durchaus": 7350,
      "Messe": 7351,
      "Formen": 7352,
      "maßen": 7353,
      "zentrale": 7354,
      "Motor": 7355,
      "Nah": 7356,
      "freue": 7357,
      "tätig": 7358,
      "gewährleistet": 7359,
      "Währungs": 7360,
      "gn": 7361,
      "Klicken": 7362,
      "itze": 7363,
      "terr": 7364,
      "verloren": 7365,
      "erfolgen": 7366,
      "irm": 7367,
      "ehrte": 7368,
      "pä": 7369,
      "Programms": 7370,
      "Übereinkommen": 7371,
      "leistungen": 7372,
      "Kil": 7373,
      "aufmerksam": 7374,
      "trans": 7375,
      "News": 7376,
      "Einigung": 7377,
      "Sehenswürdig": 7378,
      "PL": 7379,
      "beob": 7380,
      "ption": 7381,
      "benötigt": 7382,
      "Prioritäten": 7383,
      "beauf": 7384,
      "Linux": 7385,
      "Rechnung": 7386,
      "Geist": 7387,
      "Worte": 7388,
      "finanzielle": 7389,
      "Start": 7390,
      "vorge": 7391,
      "leiden": 7392,
      "tür": 7393,
      "ish": 7394,
      "abgeschlossen": 7395,
      "nei": 7396,
      "Kirche": 7397,
      "maxim": 7398,
      "Mic": 7399,
      "veröffentlicht": 7400,
      "ranken": 7401,
      "Katastrop": 7402,
      "Immobilien": 7403,
      "andi": 7404,
      "gewicht": 7405,
      "Lit": 7406,
      "Indien": 7407,
      "handels": 7408,
      "uz": 7409,
      "hre": 7410,
      "Herausforderung": 7411,
      "iell": 7412,
      "Karten": 7413,
      "erscheint": 7414,
      "unabhängig": 7415,
      "rum": 7416,
      "erstellen": 7417,
      "vil": 7418,
      "Camp": 7419,
      "Amster": 7420,
      "gelungen": 7421,
      "Terrasse": 7422,
      "erklären": 7423,
      "riebe": 7424,
      "ition": 7425,
      "Innovation": 7426,
      "Königreich": 7427,
      "nutz": 7428,
      "uk": 7429,
      "Meeres": 7430,
      "Stellungnahme": 7431,
      "bit": 7432,
      "Sand": 7433,
      "Versuch": 7434,
      "sammlung": 7435,
      "hielt": 7436,
      "Patienten": 7437,
      "nahm": 7438,
      "ennen": 7439,
      "wagen": 7440,
      "Ern": 7441,
      "persönlich": 7442,
      "nächste": 7443,
      "bericht": 7444,
      "zählt": 7445,
      "übertragen": 7446,
      "tzentr": 7447,
      "Nachfolgend": 7448,
      "Kompeten": 7449,
      "Flücht": 7450,
      "befürwor": 7451,
      "fas": 7452,
      "ake": 7453,
      "Portug": 7454,
      "Achtung": 7455,
      "Net": 7456,
      "Prem": 7457,
      "Unterkunft": 7458,
      "konzentrieren": 7459,
      "Typ": 7460,
      "vielfäl": 7461,
      "station": 7462,
      "folgende": 7463,
      "Einhaltung": 7464,
      "Entschließungsantrag": 7465,
      "dennoch": 7466,
      "Freund": 7467,
      "Dennoch": 7468,
      "Texte": 7469,
      "Landwir": 7470,
      "Jahrhunderts": 7471,
      "gegensei": 7472,
      "fügt": 7473,
      "geschehen": 7474,
      "Mig": 7475,
      "Forderungen": 7476,
      "ych": 7477,
      "Gewähr": 7478,
      "Museum": 7479,
      "gegründet": 7480,
      "Na": 7481,
      "rift": 7482,
      "gestalten": 7483,
      "diskutieren": 7484,
      "ühren": 7485,
      "starke": 7486,
      "Aspekt": 7487,
      "Barcelona": 7488,
      "täglich": 7489,
      "eting": 7490,
      "Bre": 7491,
      "Deleg": 7492,
      "ktoren": 7493,
      "freut": 7494,
      "ager": 7495,
      "Anlagen": 7496,
      "unterschiedliche": 7497,
      "OL": 7498,
      "kostenlos": 7499,
      "läne": 7500,
      "asen": 7501,
      "--": 7502,
      "ript": 7503,
      "Hel": 7504,
      "niedr": 7505,
      "Paten": 7506,
      "geleistet": 7507,
      "matik": 7508,
      "Wich": 7509,
      "fehl": 7510,
      "Villa": 7511,
      "Distri": 7512,
      "attra": 7513,
      "lic": 7514,
      "Ideen": 7515,
      "verlassen": 7516,
      "sex": 7517,
      "proje": 7518,
      "positive": 7519,
      "achtung": 7520,
      "kungen": 7521,
      "Afrika": 7522,
      "Sehenswürdigkeiten": 7523,
      "umwelt": 7524,
      "qualifiz": 7525,
      "grenzen": 7526,
      "korre": 7527,
      "Name": 7528,
      "digit": 7529,
      "assungs": 7530,
      "Imp": 7531,
      "umfasst": 7532,
      "politischer": 7533,
      "endgül": 7534,
      "bereiten": 7535,
      "wirkt": 7536,
      "Ukra": 7537,
      "Rum": 7538,
      "Debian": 7539,
      "zy": 7540,
      "Sach": 7541,
      "Miss": 7542,
      "Lesung": 7543,
      "Wien": 7544,
      "Aussicht": 7545,
      "lösung": 7546,
      "medizin": 7547,
      "tele": 7548,
      "Allgem": 7549,
      "kaufen": 7550,
      "betrachtet": 7551,
      "höri": 7552,
      "passt": 7553,
      "ava": 7554,
      "ügen": 7555,
      "atte": 7556,
      "breite": 7557,
      "irt": 7558,
      "öm": 7559,
      "Verpflichtung": 7560,
      "hnung": 7561,
      "Teilnehmer": 7562,
      "Stück": 7563,
      "ök": 7564,
      "Gemeinsamen": 7565,
      "üter": 7566,
      "geplan": 7567,
      "cle": 7568,
      "Wün": 7569,
      "holt": 7570,
      "Treffen": 7571,
      "überschreiten": 7572,
      "Landschaft": 7573,
      "Universität": 7574,
      "behaup": 7575,
      "feststellen": 7576,
      "andt": 7577,
      "Yor": 7578,
      "garantiert": 7579,
      "omen": 7580,
      "führenden": 7581,
      "erforderlichen": 7582,
      "Enter": 7583,
      "Argu": 7584,
      "Foto": 7585,
      "überprüfen": 7586,
      "haltet": 7587,
      "jährigen": 7588,
      "ausgewä": 7589,
      "alog": 7590,
      "Polen": 7591,
      "Überwachung": 7592,
      "oto": 7593,
      "Harmon": 7594,
      "Pau": 7595,
      "Sorge": 7596,
      "verfolgt": 7597,
      "verbind": 7598,
      "hängen": 7599,
      "Gleichzeitig": 7600,
      "Vielzahl": 7601,
      "Comm": 7602,
      "loss": 7603,
      "ungsmittel": 7604,
      "Großbritannien": 7605,
      "ged": 7606,
      "its": 7607,
      "Sehr": 7608,
      "vollkommen": 7609,
      "volution": 7610,
      "tten": 7611,
      "tigte": 7612,
      "Dorf": 7613,
      "Heimat": 7614,
      "FR": 7615,
      "ständnis": 7616,
      "Kopf": 7617,
      "umm": 7618,
      "Nutzer": 7619,
      "mittag": 7620,
      "car": 7621,
      "Stärkung": 7622,
      "Tourismus": 7623,
      "hingewiesen": 7624,
      "Drogen": 7625,
      "Bedarf": 7626,
      "Militär": 7627,
      "ausgehen": 7628,
      "regionalen": 7629,
      "versorgung": 7630,
      "Entwicklungen": 7631,
      "Polizei": 7632,
      "legte": 7633,
      "anen": 7634,
      "rüst": 7635,
      "Kan": 7636,
      "laut": 7637,
      "rasch": 7638,
      "Mechan": 7639,
      "poten": 7640,
      "Off": 7641,
      "miteinander": 7642,
      "einsetzen": 7643,
      "Ski": 7644,
      "Lab": 7645,
      "Koso": 7646,
      "sicherung": 7647,
      "krieg": 7648,
      "preise": 7649,
      "einfachen": 7650,
      "sozial": 7651,
      "erinner": 7652,
      "gegenwärtig": 7653,
      "Schön": 7654,
      "Vers": 7655,
      "Lizenz": 7656,
      "geschützt": 7657,
      "verbrei": 7658,
      "Willen": 7659,
      "üssen": 7660,
      "vernünf": 7661,
      "zahlt": 7662,
      "test": 7663,
      "ated": 7664,
      "Ord": 7665,
      "fand": 7666,
      "beruf": 7667,
      "bieter": 7668,
      "Elemente": 7669,
      "bezeichnet": 7670,
      "ausgewogen": 7671,
      "Arbeitslosigkeit": 7672,
      "Mutter": 7673,
      "eingeführt": 7674,
      "ometer": 7675,
      "Ratsvorsitz": 7676,
      "mäch": 7677,
      "Anlage": 7678,
      "Jeder": 7679,
      "geg": 7680,
      "gegenwärtigen": 7681,
      "Entwurf": 7682,
      "Problemen": 7683,
      "Erst": 7684,
      "kräfte": 7685,
      "gestellten": 7686,
      "weiterer": 7687,
      "Wechsel": 7688,
      "Diskrimin": 7689,
      "gutes": 7690,
      "Bedürfnisse": 7691,
      "höchste": 7692,
      "Führung": 7693,
      "französischen": 7694,
      "Irland": 7695,
      "profitieren": 7696,
      "Architektur": 7697,
      "kont": 7698,
      "kr": 7699,
      "Train": 7700,
      "Pas": 7701,
      "Bewertung": 7702,
      "breiten": 7703,
      "üben": 7704,
      "sser": 7705,
      "metho": 7706,
      "Identi": 7707,
      "Cap": 7708,
      "Mat": 7709,
      "bemer": 7710,
      "ibli": 7711,
      "bewahr": 7712,
      "schick": 7713,
      "Jahrzehn": 7714,
      "dritten": 7715,
      "Umfang": 7716,
      "Rechnungs": 7717,
      "WTO": 7718,
      "Geschäftsordnung": 7719,
      "spezielle": 7720,
      "knü": 7721,
      "Beschreibung": 7722,
      "ärm": 7723,
      "unterstütze": 7724,
      "Wür": 7725,
      "meist": 7726,
      "annt": 7727,
      "leistungs": 7728,
      "Speicher": 7729,
      "zwe": 7730,
      "Bahnhof": 7731,
      "if": 7732,
      "derung": 7733,
      "Verteidigung": 7734,
      "gezogen": 7735,
      "Mik": 7736,
      "Kommen": 7737,
      "Regelungen": 7738,
      "Rad": 7739,
      "itor": 7740,
      "vorliegenden": 7741,
      "danach": 7742,
      "ausschusses": 7743,
      "Hostels": 7744,
      "überall": 7745,
      "geist": 7746,
      "rein": 7747,
      "antie": 7748,
      "Meiner": 7749,
      "windigkeit": 7750,
      "Vorsitzen": 7751,
      "Tool": 7752,
      "king": 7753,
      "Strom": 7754,
      "sämtliche": 7755,
      "1998": 7756,
      "normal": 7757,
      "Tal": 7758,
      "Europäer": 7759,
      "beginnt": 7760,
      "Links": 7761,
      "Priorität": 7762,
      "andidaten": 7763,
      "bestätigt": 7764,
      "Fenster": 7765,
      "überein": 7766,
      "komplett": 7767,
      "zustimmen": 7768,
      "cor": 7769,
      "äden": 7770,
      "haupts": 7771,
      "keinerlei": 7772,
      "besitzt": 7773,
      "Seine": 7774,
      "ruhigen": 7775,
      "Stock": 7776,
      "SP": 7777,
      "beteiligt": 7778,
      "großes": 7779,
      "Chancen": 7780,
      "greichen": 7781,
      "hor": 7782,
      "Fotos": 7783,
      "mechan": 7784,
      "sige": 7785,
      "Kommissions": 7786,
      "MP": 7787,
      "Kombin": 7788,
      "istisch": 7789,
      "Marken": 7790,
      "offensichtlich": 7791,
      "DVD": 7792,
      "Fortschritt": 7793,
      "zerstör": 7794,
      "einfache": 7795,
      "Globalisierung": 7796,
      "World": 7797,
      "demokratische": 7798,
      "Altstadt": 7799,
      "same": 7800,
      "ideal": 7801,
      "Justiz": 7802,
      "suche": 7803,
      "umfassende": 7804,
      "Model": 7805,
      "ausreichend": 7806,
      "Gerichtshof": 7807,
      "Tisch": 7808,
      "Wellness": 7809,
      "Griechenland": 7810,
      "Offen": 7811,
      "Ukraine": 7812,
      "Stadtzentr": 7813,
      "hergestellt": 7814,
      "32": 7815,
      "event": 7816,
      "Angesichts": 7817,
      "fg": 7818,
      "umfangreich": 7819,
      "Brow": 7820,
      "Pil": 7821,
      "trenn": 7822,
      "decken": 7823,
      "IV": 7824,
      "Mitteln": 7825,
      "größeren": 7826,
      "UR": 7827,
      "stums": 7828,
      "ini": 7829,
      "grundsätz": 7830,
      "Gott": 7831,
      "Verständnis": 7832,
      "sorgt": 7833,
      "ergie": 7834,
      "garantieren": 7835,
      "Kosovo": 7836,
      "Such": 7837,
      "zugän": 7838,
      "klein": 7839,
      "ffizienz": 7840,
      "lust": 7841,
      "International": 7842,
      "führungen": 7843,
      "Worten": 7844,
      "transpar": 7845,
      "genannte": 7846,
      "zahlung": 7847,
      "Defin": 7848,
      "és": 7849,
      "zusätzlich": 7850,
      "Erhö": 7851,
      "ida": 7852,
      "nötig": 7853,
      "exter": 7854,
      "international": 7855,
      "personen": 7856,
      "vertei": 7857,
      "Maße": 7858,
      "reden": 7859,
      "mittels": 7860,
      "Größe": 7861,
      "verbundenen": 7862,
      "relativ": 7863,
      "ergeben": 7864,
      "Monat": 7865,
      "beinhaltet": 7866,
      "Beteiligung": 7867,
      "OM": 7868,
      "Pat": 7869,
      "Inf": 7870,
      "bequem": 7871,
      "zellen": 7872,
      "klang": 7873,
      "Eindruck": 7874,
      "solcher": 7875,
      "gä": 7876,
      "wesentlichen": 7877,
      "fter": 7878,
      "Stein": 7879,
      "Experten": 7880,
      "Studien": 7881,
      "eisen": 7882,
      "technik": 7883,
      "bekannten": 7884,
      "gebe": 7885,
      "internationaler": 7886,
      "attform": 7887,
      "Col": 7888,
      "ulgar": 7889,
      "partner": 7890,
      "stabil": 7891,
      "arta": 7892,
      "cia": 7893,
      "36": 7894,
      "Kurz": 7895,
      "beglück": 7896,
      "cy": 7897,
      "Code": 7898,
      "Wald": 7899,
      "NI": 7900,
      "Datenbank": 7901,
      "äsion": 7902,
      "Mitglieds": 7903,
      "Erklärungen": 7904,
      "Erzeug": 7905,
      "Märkte": 7906,
      "Mand": 7907,
      "seite": 7908,
      "Komponen": 7909,
      "renov": 7910,
      "Todes": 7911,
      "reen": 7912,
      "Mu": 7913,
      "Zahlen": 7914,
      "nam": 7915,
      "ry": 7916,
      "Aktionen": 7917,
      "dienste": 7918,
      "Gesetzgebung": 7919,
      "handlungen": 7920,
      "ourn": 7921,
      "teilnehmen": 7922,
      "Ke": 7923,
      "streben": 7924,
      "fghan": 7925,
      "überw": 7926,
      "Ol": 7927,
      "ye": 7928,
      "fehlen": 7929,
      "zö": 7930,
      "starken": 7931,
      "verabschie": 7932,
      "Geor": 7933,
      "fei": 7934,
      "entre": 7935,
      "wendet": 7936,
      "Gründe": 7937,
      "öder": 7938,
      "Hinweis": 7939,
      "wünsche": 7940,
      "my": 7941,
      "Kohäsion": 7942,
      "auso": 7943,
      "praktisch": 7944,
      "Niveau": 7945,
      "einfl": 7946,
      "vorschlag": 7947,
      "Sim": 7948,
      "vermie": 7949,
      "klusive": 7950,
      "Rezeption": 7951,
      "Booking": 7952,
      "finde": 7953,
      "änge": 7954,
      "material": 7955,
      "bü": 7956,
      "mittelt": 7957,
      "way": 7958,
      "gebil": 7959,
      "01": 7960,
      "Datenschutz": 7961,
      "ellos": 7962,
      "Kontroll": 7963,
      "Friedens": 7964,
      "Städte": 7965,
      "Unabhängigkeit": 7966,
      "hlten": 7967,
      "produktion": 7968,
      "Kontin": 7969,
      "Erde": 7970,
      "Gedanken": 7971,
      "lehnt": 7972,
      "Verbrechen": 7973,
      "holung": 7974,
      "Fit": 7975,
      "Asi": 7976,
      "lege": 7977,
      "speziellen": 7978,
      "uchten": 7979,
      "Farben": 7980,
      "Ton": 7981,
      "stö": 7982,
      "Verbr": 7983,
      "Open": 7984,
      "Studen": 7985,
      "were": 7986,
      "atoren": 7987,
      "Gran": 7988,
      "sult": 7989,
      "verletz": 7990,
      "Mitgliedern": 7991,
      "Inner": 7992,
      "griffe": 7993,
      "Wiederauf": 7994,
      "Flexibilität": 7995,
      "Zugriff": 7996,
      "wettbewer": 7997,
      "Samm": 7998,
      "räumen": 7999,
      "dler": 8000,
      "utt": 8001,
      "Mittelmeer": 8002,
      "bewegen": 8003,
      "Ganz": 8004,
      "geöffnet": 8005,
      "betrachten": 8006,
      "benach": 8007,
      "nehmern": 8008,
      "Verletz": 8009,
      "Methode": 8010,
      "Beim": 8011,
      "asil": 8012,
      "Option": 8013,
      "Asyl": 8014,
      "Empfehlungen": 8015,
      "Botschaft": 8016,
      "grei": 8017,
      "beachten": 8018,
      "gerufen": 8019,
      "Mel": 8020,
      "Beihilfen": 8021,
      "Gegensatz": 8022,
      "sper": 8023,
      "rechtlichen": 8024,
      "passung": 8025,
      "Ereignisse": 8026,
      "Amsterdam": 8027,
      "pres": 8028,
      "fühlen": 8029,
      "Gebiete": 8030,
      "management": 8031,
      "Kind": 8032,
      "sum": 8033,
      "Reaktion": 8034,
      "gei": 8035,
      "uung": 8036,
      "wal": 8037,
      "lebens": 8038,
      "Gold": 8039,
      "Einkommen": 8040,
      "informiert": 8041,
      "Mess": 8042,
      "Weitere": 8043,
      "künst": 8044,
      "ibliothe": 8045,
      "dynam": 8046,
      "züglich": 8047,
      "erhöht": 8048,
      "körper": 8049,
      "registr": 8050,
      "roati": 8051,
      "Drei": 8052,
      "rik": 8053,
      "bert": 8054,
      "isiert": 8055,
      "vertrau": 8056,
      "linge": 8057,
      "Ausland": 8058,
      "multi": 8059,
      "zufolge": 8060,
      "lux": 8061,
      "türk": 8062,
      "chst": 8063,
      "leitung": 8064,
      "this": 8065,
      "britischen": 8066,
      "Nachdem": 8067,
      "ablen": 8068,
      "Süden": 8069,
      "gas": 8070,
      "Formular": 8071,
      "igte": 8072,
      "Beschluss": 8073,
      "guter": 8074,
      "itut": 8075,
      "....": 8076,
      "san": 8077,
      "Beschäftigungs": 8078,
      "Frühstücks": 8079,
      "Inseln": 8080,
      "ki": 8081,
      "Fraktionen": 8082,
      "drän": 8083,
      "ymp": 8084,
      "sorgfäl": 8085,
      "Wirkung": 8086,
      "manchmal": 8087,
      "aben": 8088,
      "regeln": 8089,
      "hauptsächlich": 8090,
      "Kaffe": 8091,
      "berühmten": 8092,
      "strategie": 8093,
      "Schi": 8094,
      "sal": 8095,
      "gesellschaften": 8096,
      "Realität": 8097,
      "daraus": 8098,
      "oler": 8099,
      "herzlich": 8100,
      "sbe": 8101,
      "teuer": 8102,
      "Beob": 8103,
      "Teilen": 8104,
      "fair": 8105,
      "präsentiert": 8106,
      "uld": 8107,
      "elev": 8108,
      "Et": 8109,
      "Grunde": 8110,
      "nationaler": 8111,
      "kontin": 8112,
      "ausführ": 8113,
      "akzept": 8114,
      "Strate": 8115,
      "außerorden": 8116,
      "kul": 8117,
      "Vorteil": 8118,
      "Liberalisierung": 8119,
      "allgemeine": 8120,
      "einverstanden": 8121,
      "gende": 8122,
      "IL": 8123,
      "ideale": 8124,
      "leun": 8125,
      "Prüfung": 8126,
      "geschieht": 8127,
      "Urs": 8128,
      "selten": 8129,
      "Hoffnung": 8130,
      "respe": 8131,
      "sobald": 8132,
      "festgestellt": 8133,
      "dik": 8134,
      "entlich": 8135,
      "deutsche": 8136,
      "systems": 8137,
      "harmon": 8138,
      "Dig": 8139,
      "mas": 8140,
      "gewisse": 8141,
      "Grundrechte": 8142,
      "48": 8143,
      "echte": 8144,
      "mün": 8145,
      "ücken": 8146,
      "fassung": 8147,
      "ktivität": 8148,
      "Il": 8149,
      "Hauptstadt": 8150,
      "This": 8151,
      "sens": 8152,
      "ienen": 8153,
      "Schrift": 8154,
      "Voraussetzungen": 8155,
      "Pre": 8156,
      "gewählt": 8157,
      "Cre": 8158,
      "Erwar": 8159,
      "jungen": 8160,
      "schneller": 8161,
      "urs": 8162,
      "einzigen": 8163,
      "Spiele": 8164,
      "kombin": 8165,
      "ategorie": 8166,
      "unternommen": 8167,
      "vorgeschlagenen": 8168,
      "Gebrauch": 8169,
      "Mindest": 8170,
      "regelmäßig": 8171,
      "akfast": 8172,
      "norm": 8173,
      "bindung": 8174,
      "Minderheiten": 8175,
      "Will": 8176,
      "wichtigste": 8177,
      "Gegenteil": 8178,
      "Zoll": 8179,
      "ola": 8180,
      "betre": 8181,
      "Vom": 8182,
      "vision": 8183,
      "ustr": 8184,
      "persönliche": 8185,
      "damals": 8186,
      "ament": 8187,
      "cial": 8188,
      "Nichtrauch": 8189,
      "denk": 8190,
      "atis": 8191,
      "tiken": 8192,
      "iech": 8193,
      "Top": 8194,
      "latz": 8195,
      "gewünsch": 8196,
      "kontext": 8197,
      "jüngsten": 8198,
      "staff": 8199,
      "Männer": 8200,
      "ssystem": 8201,
      "rig": 8202,
      "private": 8203,
      "Bud": 8204,
      "erfordert": 8205,
      "Syn": 8206,
      "Center": 8207,
      "ördert": 8208,
      "Phase": 8209,
      "AB": 8210,
      "auslän": 8211,
      "Ebenso": 8212,
      "hop": 8213,
      "scheinen": 8214,
      "flex": 8215,
      "EM": 8216,
      "übernommen": 8217,
      "ris": 8218,
      "ese": 8219,
      "Teilnahme": 8220,
      "ain": 8221,
      "lieb": 8222,
      "geschäft": 8223,
      "Roh": 8224,
      "Niederlan": 8225,
      "Sant": 8226,
      "Bestandteil": 8227,
      "Agenda": 8228,
      "York": 8229,
      "Com": 8230,
      "gewal": 8231,
      "Verfüg": 8232,
      "Politiker": 8233,
      "Mos": 8234,
      "Mir": 8235,
      "Kür": 8236,
      "lägen": 8237,
      "osition": 8238,
      "schwe": 8239,
      "Veranstaltungen": 8240,
      "onom": 8241,
      "Nachrichten": 8242,
      "have": 8243,
      "Meinungs": 8244,
      "anbieten": 8245,
      "ismen": 8246,
      "Nichtraucher": 8247,
      "Pool": 8248,
      "Arbeitsmarkt": 8249,
      "City": 8250,
      "Lö": 8251,
      "sieben": 8252,
      "basiert": 8253,
      "betroffenen": 8254,
      "dor": 8255,
      "igion": 8256,
      "Origin": 8257,
      "vieler": 8258,
      "Sprach": 8259,
      "situ": 8260,
      "etter": 8261,
      "75": 8262,
      "Apparte": 8263,
      "Welche": 8264,
      "trifft": 8265,
      "spartner": 8266,
      "Prak": 8267,
      "nachhaltige": 8268,
      "Apartments": 8269,
      "bett": 8270,
      "oker": 8271,
      "Klimaanlage": 8272,
      "Risiken": 8273,
      "vorschlagen": 8274,
      "räger": 8275,
      "lit": 8276,
      "hebung": 8277,
      "Häl": 8278,
      "spir": 8279,
      "ernen": 8280,
      "Ku": 8281,
      "richtlinie": 8282,
      "ausende": 8283,
      "Effizienz": 8284,
      "Überprüfung": 8285,
      "PH": 8286,
      "Ausnahme": 8287,
      "ücke": 8288,
      "Einkaufs": 8289,
      "altern": 8290,
      "Zimmern": 8291,
      "Java": 8292,
      "fragt": 8293,
      "Kam": 8294,
      "Publik": 8295,
      "Reich": 8296,
      "Ziff": 8297,
      "beschäftigt": 8298,
      "Rand": 8299,
      "Gefühl": 8300,
      "unterschiedlich": 8301,
      "fertigt": 8302,
      "Gesetze": 8303,
      "elles": 8304,
      "prise": 8305,
      "wid": 8306,
      "erneuer": 8307,
      "Services": 8308,
      "beraten": 8309,
      "vertre": 8310,
      "traditionellen": 8311,
      "fällen": 8312,
      "sprachen": 8313,
      "Format": 8314,
      "krank": 8315,
      "maschinen": 8316,
      "gegebenen": 8317,
      "Angebote": 8318,
      "Methoden": 8319,
      "Pflanzen": 8320,
      "Mac": 8321,
      "Vorbereitung": 8322,
      "Betra": 8323,
      "welchen": 8324,
      "1997": 8325,
      "Ferienwoh": 8326,
      "zugleich": 8327,
      "Austausch": 8328,
      "cur": 8329,
      "Politi": 8330,
      "angeht": 8331,
      "wan": 8332,
      "Pflicht": 8333,
      "tut": 8334,
      "Koordinierung": 8335,
      "wodurch": 8336,
      "Poten": 8337,
      "Tod": 8338,
      "diskutiert": 8339,
      "eichert": 8340,
      "Haup": 8341,
      "beeinfl": 8342,
      "Anpassung": 8343,
      "Wes": 8344,
      "wann": 8345,
      "freundliche": 8346,
      "lebnis": 8347,
      "verste": 8348,
      "old": 8349,
      "liefern": 8350,
      "Liebe": 8351,
      "Bewegung": 8352,
      "mlich": 8353,
      "spezifischen": 8354,
      "Erhöhung": 8355,
      "Veröffentlich": 8356,
      "willkommen": 8357,
      "iode": 8358,
      "Feld": 8359,
      "anden": 8360,
      "begri": 8361,
      "isieren": 8362,
      "Lang": 8363,
      "erscheinen": 8364,
      "besseren": 8365,
      "Geh": 8366,
      "miss": 8367,
      "PD": 8368,
      "andererseits": 8369,
      "fein": 8370,
      "bezieht": 8371,
      "gress": 8372,
      "ival": 8373,
      "Angriff": 8374,
      "Internationalen": 8375,
      "Diskriminierung": 8376,
      "Rumän": 8377,
      "Del": 8378,
      "ato": 8379,
      "Red": 8380,
      "Hälfte": 8381,
      "isla": 8382,
      "griech": 8383,
      "Fluss": 8384,
      "angs": 8385,
      "Gästen": 8386,
      "Hard": 8387,
      "Cli": 8388,
      "pport": 8389,
      "Stadtzentrum": 8390,
      "Best": 8391,
      "weiteres": 8392,
      "Bef": 8393,
      "Absicht": 8394,
      "Rund": 8395,
      "jährlich": 8396,
      "AF": 8397,
      "uert": 8398,
      "Touristen": 8399,
      "entwicklung": 8400,
      "Bio": 8401,
      "ise": 8402,
      "union": 8403,
      "wegs": 8404,
      "Morgen": 8405,
      "Link": 8406,
      "Akte": 8407,
      "grenzüberschreiten": 8408,
      "qualit": 8409,
      "schafft": 8410,
      "dir": 8411,
      "Serie": 8412,
      "Laufe": 8413,
      "asi": 8414,
      "reagieren": 8415,
      "Mag": 8416,
      "zwungen": 8417,
      "entstanden": 8418,
      "Reserv": 8419,
      "Beweis": 8420,
      "Aufgrund": 8421,
      "uver": 8422,
      "werten": 8423,
      "ally": 8424,
      "fac": 8425,
      "date": 8426,
      "Rein": 8427,
      "Ve": 8428,
      "junge": 8429,
      "ahnen": 8430,
      "Dimension": 8431,
      "seitens": 8432,
      "begann": 8433,
      "ado": 8434,
      "kürzlich": 8435,
      "schauen": 8436,
      "reibt": 8437,
      "Autor": 8438,
      "Dokumente": 8439,
      "alien": 8440,
      "Freizeit": 8441,
      "einzelne": 8442,
      "Ordnung": 8443,
      "sprüche": 8444,
      "konf": 8445,
      "bereiche": 8446,
      "Vater": 8447,
      "eff": 8448,
      "geboren": 8449,
      "meister": 8450,
      "flächen": 8451,
      "ruf": 8452,
      "strich": 8453,
      "IB": 8454,
      "Grenze": 8455,
      "bal": 8456,
      "Norden": 8457,
      "Religion": 8458,
      "bildet": 8459,
      "akzeptiert": 8460,
      "Tiere": 8461,
      "Anliegen": 8462,
      "üss": 8463,
      "genü": 8464,
      "agiert": 8465,
      "kompeten": 8466,
      "behandeln": 8467,
      "400": 8468,
      "PE": 8469,
      "Haushaltsplan": 8470,
      "obje": 8471,
      "gegangen": 8472,
      "Generation": 8473,
      "Posi": 8474,
      "Fälle": 8475,
      "Registr": 8476,
      "freundlich": 8477,
      "koordin": 8478,
      "Schweden": 8479,
      "Kooperation": 8480,
      "positiven": 8481,
      "ohlen": 8482,
      "38": 8483,
      "kret": 8484,
      "ock": 8485,
      "zeß": 8486,
      "glück": 8487,
      "betont": 8488,
      "Fähigkeit": 8489,
      "Rich": 8490,
      "krise": 8491,
      "schritt": 8492,
      "Einheit": 8493,
      "gearbeitet": 8494,
      "Europe": 8495,
      "Glas": 8496,
      "spezifische": 8497,
      "schwar": 8498,
      "ogle": 8499,
      "städ": 8500,
      "las": 8501,
      "mittlung": 8502,
      "ländlichen": 8503,
      "stellungs": 8504,
      "nochmals": 8505,
      "Win": 8506,
      "Berücksich": 8507,
      "telligen": 8508,
      "Browser": 8509,
      "Ten": 8510,
      "umgeben": 8511,
      "ling": 8512,
      "kommun": 8513,
      "Eltern": 8514,
      "problem": 8515,
      "überzeugen": 8516,
      "Schwar": 8517,
      "Fitness": 8518,
      "Bildungs": 8519,
      "KM": 8520,
      "Freunde": 8521,
      "rosoft": 8522,
      "ande": 8523,
      "Flä": 8524,
      "IF": 8525,
      "fizierung": 8526,
      "ichtete": 8527,
      "Wegen": 8528,
      "präsent": 8529,
      "sicherstellen": 8530,
      "beeindruck": 8531,
      "früh": 8532,
      "Stunde": 8533,
      "Perspe": 8534,
      "gestern": 8535,
      "Kurs": 8536,
      "abhängig": 8537,
      "voran": 8538,
      "Untersuchung": 8539,
      "Dort": 8540,
      "Antwor": 8541,
      "Haut": 8542,
      "Vir": 8543,
      "Straf": 8544,
      "Wh": 8545,
      "täu": 8546,
      "Mini": 8547,
      "verstärkt": 8548,
      "Salz": 8549,
      "begonnen": 8550,
      "dy": 8551,
      "Massen": 8552,
      "Portugal": 8553,
      "abl": 8554,
      "Kombination": 8555,
      "Sem": 8556,
      "prinzip": 8557,
      "engen": 8558,
      "Las": 8559,
      "Englisch": 8560,
      "werfen": 8561,
      "Alter": 8562,
      "Unterschiede": 8563,
      "ane": 8564,
      "modell": 8565,
      "150": 8566,
      "Übernach": 8567,
      "meldung": 8568,
      "Zustand": 8569,
      "jährige": 8570,
      "ästinens": 8571,
      "grundlage": 8572,
      "straße": 8573,
      "unsten": 8574,
      "Umständen": 8575,
      "ski": 8576,
      "entspannen": 8577,
      "Eigenschaften": 8578,
      "überra": 8579,
      "Einklang": 8580,
      "beschrieben": 8581,
      "Diskussionen": 8582,
      "eiden": 8583,
      "Tauch": 8584,
      "istenz": 8585,
      "kanischen": 8586,
      "Kollege": 8587,
      "arm": 8588,
      "telli": 8589,
      "Dach": 8590,
      "Glau": 8591,
      "hilf": 8592,
      "betrieb": 8593,
      "Tun": 8594,
      "streichen": 8595,
      "langsam": 8596,
      "verlieren": 8597,
      "zielt": 8598,
      "Verfügbarkeit": 8599,
      "oo": 8600,
      "gebunden": 8601,
      "Autob": 8602,
      "omin": 8603,
      "folgerungen": 8604,
      "globale": 8605,
      "Var": 8606,
      "Gebur": 8607,
      "TE": 8608,
      "verlangen": 8609,
      "Dadurch": 8610,
      "Geräte": 8611,
      "ied": 8612,
      "altet": 8613,
      "Provin": 8614,
      "Freude": 8615,
      "soweit": 8616,
      "Microsoft": 8617,
      "Dre": 8618,
      "vielmehr": 8619,
      "Redu": 8620,
      "vorgenommen": 8621,
      "press": 8622,
      "Zahlungs": 8623,
      "ergriffen": 8624,
      "Alli": 8625,
      "flüge": 8626,
      "relig": 8627,
      "Kunde": 8628,
      "Einwanderung": 8629,
      "befassen": 8630,
      "biente": 8631,
      "Bedenken": 8632,
      "Bay": 8633,
      "orgnis": 8634,
      "gre": 8635,
      "Mehrwert": 8636,
      "Event": 8637,
      "gänge": 8638,
      "ournal": 8639,
      "olz": 8640,
      "Garantie": 8641,
      "derzeitigen": 8642,
      "stoffen": 8643,
      "regionale": 8644,
      "Handeln": 8645,
      "Dol": 8646,
      "Berücksichtigung": 8647,
      "nummer": 8648,
      "ark": 8649,
      "Theater": 8650,
      "tät": 8651,
      "Bri": 8652,
      "roh": 8653,
      "Papier": 8654,
      "ehemaligen": 8655,
      "lament": 8656,
      "begrün": 8657,
      "kulturelle": 8658,
      "Enterprise": 8659,
      "sah": 8660,
      "anerkannt": 8661,
      "Lob": 8662,
      "ppen": 8663,
      "fertig": 8664,
      "märkte": 8665,
      "Bedro": 8666,
      "33": 8667,
      "absich": 8668,
      "Kranken": 8669,
      "fir": 8670,
      "Aufsicht": 8671,
      "schm": 8672,
      "Antworten": 8673,
      "zurückzu": 8674,
      "historische": 8675,
      "aill": 8676,
      "Westen": 8677,
      "Erwachsen": 8678,
      "akten": 8679,
      "Tick": 8680,
      "regelmäß": 8681,
      "spre": 8682,
      "wiederum": 8683,
      "ero": 8684,
      "Strukturfonds": 8685,
      "konkreten": 8686,
      "tor": 8687,
      "ates": 8688,
      "NAT": 8689,
      "EW": 8690,
      "Schwerpunkt": 8691,
      "gespielt": 8692,
      "aktive": 8693,
      "teste": 8694,
      "Wahrheit": 8695,
      "Komment": 8696,
      "genauso": 8697,
      "Vielleicht": 8698,
      "schlecht": 8699,
      "Voraussetzung": 8700,
      "Krisen": 8701,
      "Menü": 8702,
      "Grundsätze": 8703,
      "namen": 8704,
      "Blog": 8705,
      "Kamera": 8706,
      "seien": 8707,
      "Zusatz": 8708,
      "bean": 8709,
      "atein": 8710,
      "Studie": 8711,
      "Signal": 8712,
      "allgemein": 8713,
      "1996": 8714,
      "industr": 8715,
      "ordnungs": 8716,
      "Marketing": 8717,
      "Leitlinien": 8718,
      "Küste": 8719,
      "keines": 8720,
      "deiner": 8721,
      "umfassenden": 8722,
      "hilft": 8723,
      "ktiver": 8724,
      "spür": 8725,
      "heber": 8726,
      "wichtiges": 8727,
      "Erwä": 8728,
      "Schäden": 8729,
      "Vene": 8730,
      "rate": 8731,
      "Allgemeinen": 8732,
      "Strategien": 8733,
      "Lager": 8734,
      "High": 8735,
      "Verträge": 8736,
      "Dienstleistungs": 8737,
      "bestand": 8738,
      "Sanktionen": 8739,
      "Tie": 8740,
      "orts": 8741,
      "stärk": 8742,
      "Jo": 8743,
      "Google": 8744,
      "dlicher": 8745,
      "jo": 8746,
      "ita": 8747,
      "Schule": 8748,
      "modi": 8749,
      "extrem": 8750,
      "rüstung": 8751,
      "jemand": 8752,
      "osoph": 8753,
      "betrieben": 8754,
      "herrscht": 8755,
      "Maßnahme": 8756,
      "Amerika": 8757,
      "Tagung": 8758,
      "achte": 8759,
      "entlang": 8760,
      "erheblich": 8761,
      "kurr": 8762,
      "Afghan": 8763,
      "zierung": 8764,
      "Kategorie": 8765,
      "italienischen": 8766,
      "zo": 8767,
      "schätzen": 8768,
      "bungen": 8769,
      "Pake": 8770,
      "menschlichen": 8771,
      "ni": 8772,
      "rd": 8773,
      "Beifall": 8774,
      "Dafür": 8775,
      "außen": 8776,
      "ames": 8777,
      "Beratung": 8778,
      "unmittelbar": 8779,
      "auert": 8780,
      "interessante": 8781,
      "künftig": 8782,
      "Dauer": 8783,
      "Genehm": 8784,
      "ischung": 8785,
      "günstig": 8786,
      "erhältlich": 8787,
      "bezug": 8788,
      "außergewöhn": 8789,
      "hoher": 8790,
      "äume": 8791,
      "beziehung": 8792,
      "Regional": 8793,
      "Frankfur": 8794,
      "Schnitt": 8795,
      "Bla": 8796,
      "Hü": 8797,
      "amerikanische": 8798,
      "Krie": 8799,
      "Ferner": 8800,
      "zugänglich": 8801,
      "funktionieren": 8802,
      "trotzdem": 8803,
      "34": 8804,
      "Gesicht": 8805,
      "entdecken": 8806,
      "Empfehlung": 8807,
      "Bra": 8808,
      "Drit": 8809,
      "195": 8810,
      "Szen": 8811,
      "Essen": 8812,
      "ziemlich": 8813,
      "hlte": 8814,
      "Landwirte": 8815,
      "schließt": 8816,
      "Details": 8817,
      "Frü": 8818,
      "eröffnet": 8819,
      "arische": 8820,
      "Anfragen": 8821,
      "tragung": 8822,
      "Shop": 8823,
      "niemand": 8824,
      "Materialien": 8825,
      "gemü": 8826,
      "German": 8827,
      "good": 8828,
      "Temperatur": 8829,
      "Blu": 8830,
      "ep": 8831,
      "Konsequ": 8832,
      "institutionellen": 8833,
      "gs": 8834,
      "organisiert": 8835,
      "Wachstums": 8836,
      "Bulgar": 8837,
      "musik": 8838,
      "Badezimmer": 8839,
      "Studenten": 8840,
      "set": 8841,
      "initi": 8842,
      "herrschen": 8843,
      "pap": 8844,
      "zulegen": 8845,
      "IA": 8846,
      "Umweltschutz": 8847,
      "aufen": 8848,
      "stoßen": 8849,
      "respek": 8850,
      "ML": 8851,
      "pack": 8852,
      "Blut": 8853,
      "wesentliche": 8854,
      "verm": 8855,
      "beauftrag": 8856,
      "spartei": 8857,
      "falsch": 8858,
      "Zusätz": 8859,
      "Definition": 8860,
      "Hor": 8861,
      "kommerziel": 8862,
      "Fein": 8863,
      "Station": 8864,
      "äten": 8865,
      "Normen": 8866,
      "eigenes": 8867,
      "Eis": 8868,
      "Alb": 8869,
      "Fahrzeug": 8870,
      "Fremden": 8871,
      "quellen": 8872,
      "flexi": 8873,
      "Flor": 8874,
      "Rest": 8875,
      "Urlau": 8876,
      "beträgt": 8877,
      "erung": 8878,
      "entschlossen": 8879,
      "wissenschaftlichen": 8880,
      "angebot": 8881,
      "Oli": 8882,
      "just": 8883,
      "lemen": 8884,
      "leichter": 8885,
      "Wur": 8886,
      "letter": 8887,
      "Delegation": 8888,
      "center": 8889,
      "Viertel": 8890,
      "Stabil": 8891,
      "installiert": 8892,
      "Übersetzung": 8893,
      "direkte": 8894,
      "Zyp": 8895,
      "organisationen": 8896,
      "träch": 8897,
      "hoff": 8898,
      "gleicher": 8899,
      "Herkunft": 8900,
      "parlament": 8901,
      "zusätzlichen": 8902,
      "interessiert": 8903,
      "Wol": 8904,
      "berechtigt": 8905,
      "München": 8906,
      "pri": 8907,
      "Zug": 8908,
      "asser": 8909,
      "schönsten": 8910,
      "amerika": 8911,
      "fferen": 8912,
      "37": 8913,
      "auen": 8914,
      "orgt": 8915,
      "führende": 8916,
      "österreich": 8917,
      "höhere": 8918,
      "Fron": 8919,
      "Val": 8920,
      "Ep": 8921,
      "Institution": 8922,
      "Tu": 8923,
      "Eisenbahn": 8924,
      "liste": 8925,
      "Ausgabe": 8926,
      "tot": 8927,
      "Erinner": 8928,
      "Einstellung": 8929,
      "diesel": 8930,
      "kurzem": 8931,
      "künfte": 8932,
      "SD": 8933,
      "eignet": 8934,
      "besei": 8935,
      "Element": 8936,
      "zunehmend": 8937,
      "Veranstaltung": 8938,
      "Mikro": 8939,
      "Vorsitz": 8940,
      "Ambiente": 8941,
      "Wik": 8942,
      "usion": 8943,
      "sprech": 8944,
      "besitzen": 8945,
      "Ohne": 8946,
      "Forum": 8947,
      "zentralen": 8948,
      "drücken": 8949,
      "gefördert": 8950,
      "beabsich": 8951,
      "stärkt": 8952,
      "relev": 8953,
      "schnelle": 8954,
      "Mittelpunkt": 8955,
      "schwierigen": 8956,
      "grundlegenden": 8957,
      "Farb": 8958,
      "natürlichen": 8959,
      "nachzu": 8960,
      "Agrarpolitik": 8961,
      "Ungar": 8962,
      "neter": 8963,
      "hervorragende": 8964,
      "sehe": 8965,
      "kontrolle": 8966,
      "Erwartungen": 8967,
      "Bibliothe": 8968,
      "Unterschied": 8969,
      "neuesten": 8970,
      "var": 8971,
      "ausgezeichnete": 8972,
      "Kandidaten": 8973,
      "porte": 8974,
      "gerichtet": 8975,
      "Projekten": 8976,
      "Geträn": 8977,
      "weshalb": 8978,
      "zweifellos": 8979,
      "einrichtungen": 8980,
      "zuerst": 8981,
      "rief": 8982,
      "ussen": 8983,
      "ugnisse": 8984,
      "offenen": 8985,
      "buffet": 8986,
      "zwingen": 8987,
      "kurs": 8988,
      "päck": 8989,
      "Krankheit": 8990,
      "gering": 8991,
      "Wirklichkeit": 8992,
      "niemals": 8993,
      "Kann": 8994,
      "Real": 8995,
      "weltweiten": 8996,
      "ED": 8997,
      "Statist": 8998,
      "Weiß": 8999,
      "Hindern": 9000,
      "Balkon": 9001,
      "standards": 9002,
      "ther": 9003,
      "Regime": 9004,
      "Beispiele": 9005,
      "sinnvoll": 9006,
      "Referen": 9007,
      "Fund": 9008,
      "exp": 9009,
      "Kapaz": 9010,
      "AV": 9011,
      "verändert": 9012,
      "kar": 9013,
      "ichteten": 9014,
      "staatliche": 9015,
      "Nachfrage": 9016,
      "kehren": 9017,
      "gewonnen": 9018,
      "amtieren": 9019,
      "durchzuführen": 9020,
      "Verbesserungen": 9021,
      "cre": 9022,
      "erweitert": 9023,
      "eichern": 9024,
      "Küsten": 9025,
      "Stimm": 9026,
      "höchsten": 9027,
      "bran": 9028,
      "änger": 9029,
      "ausgezeichneten": 9030,
      "starten": 9031,
      "spanischen": 9032,
      "Anbieter": 9033,
      "Interne": 9034,
      "QL": 9035,
      "itar": 9036,
      "Bucht": 9037,
      "buchen": 9038,
      "Kontinent": 9039,
      "Bauern": 9040,
      "fällig": 9041,
      "religiö": 9042,
      "iend": 9043,
      "inzwischen": 9044,
      "club": 9045,
      "verändern": 9046,
      "Strukturen": 9047,
      "verhalten": 9048,
      "Ungleich": 9049,
      "ventionen": 9050,
      "Vision": 9051,
      "aufzunehmen": 9052,
      "bemüht": 9053,
      "Anschluss": 9054,
      "ktions": 9055,
      "Reisen": 9056,
      "essi": 9057,
      "liegenden": 9058,
      "Dusche": 9059,
      "füllung": 9060,
      "Vorbe": 9061,
      "ampagne": 9062,
      "doku": 9063,
      "kostet": 9064,
      "ace": 9065,
      "AU": 9066,
      "obile": 9067,
      "weisung": 9068,
      "Berufs": 9069,
      "Sound": 9070,
      "verlangt": 9071,
      "over": 9072,
      "Feuer": 9073,
      "ierend": 9074,
      "stamm": 9075,
      "any": 9076,
      "anwen": 9077,
      "ausgesprochen": 9078,
      "vergleich": 9079,
      "kurze": 9080,
      "cal": 9081,
      "nischen": 9082,
      "dorf": 9083,
      "effektiv": 9084,
      "Ausstattung": 9085,
      "beträcht": 9086,
      "IR": 9087,
      "Nein": 9088,
      "ursprünglichen": 9089,
      "deckt": 9090,
      "entwickelten": 9091,
      "zentral": 9092,
      "produziert": 9093,
      "Jedes": 9094,
      "ditionen": 9095,
      "ickt": 9096,
      "Mitgliedschaft": 9097,
      "Klasse": 9098,
      "uliert": 9099,
      "eh": 9100,
      "geräum": 9101,
      "Arme": 9102,
      "einerseits": 9103,
      "Entwicklungsländern": 9104,
      "wirt": 9105,
      "Spann": 9106,
      "ungefähr": 9107,
      "Krimin": 9108,
      "schirm": 9109,
      "Überzeugung": 9110,
      "richtet": 9111,
      "stab": 9112,
      "Casino": 9113,
      "habt": 9114,
      "Amts": 9115,
      "betreffenden": 9116,
      "luxur": 9117,
      "Kroati": 9118,
      "Last": 9119,
      "Ausstellung": 9120,
      "aktivieren": 9121,
      "legungen": 9122,
      "westlichen": 9123,
      "Punkten": 9124,
      "musste": 9125,
      "Nahrungsmittel": 9126,
      "umzusetzen": 9127,
      "detaill": 9128,
      "zeichnis": 9129,
      "Vil": 9130,
      "minuten": 9131,
      "Prüf": 9132,
      "Standort": 9133,
      "Mc": 9134,
      "Harmonisierung": 9135,
      ".-": 9136,
      "grundlegende": 9137,
      "Tschech": 9138,
      "gehoben": 9139,
      "Ausgangspunkt": 9140,
      "lations": 9141,
      "geboten": 9142,
      "quis": 9143,
      "beizu": 9144,
      "sicherungs": 9145,
      "wirkung": 9146,
      "behörde": 9147,
      "zuge": 9148,
      "gyp": 9149,
      "abgelehnt": 9150,
      "bahnhof": 9151,
      "KMU": 9152,
      "ico": 9153,
      "Got": 9154,
      "Roma": 9155,
      "Abkommens": 9156,
      "ée": 9157,
      "Boot": 9158,
      "entscheidend": 9159,
      "ffer": 9160,
      "itären": 9161,
      "Planung": 9162,
      "wirklichen": 9163,
      "Geschle": 9164,
      "gratulieren": 9165,
      "deutsch": 9166,
      "law": 9167,
      "fordere": 9168,
      "Kapitel": 9169,
      "Direkt": 9170,
      "09": 9171,
      "Journal": 9172,
      "pel": 9173,
      "Atom": 9174,
      "eingeschränkt": 9175,
      "Poker": 9176,
      "anschließen": 9177,
      "spekt": 9178,
      "stehende": 9179,
      "riesigen": 9180,
      "angehen": 9181,
      "sätzen": 9182,
      "IG": 9183,
      "cess": 9184,
      "genden": 9185,
      "ham": 9186,
      "Streit": 9187,
      "Ara": 9188,
      "Out": 9189,
      "brechen": 9190,
      "massi": 9191,
      "Grand": 9192,
      "Bestellung": 9193,
      "Farbe": 9194,
      "künftigen": 9195,
      "Halb": 9196,
      "erlauben": 9197,
      "bene": 9198,
      "Abschnitt": 9199,
      "Also": 9200,
      "Buchung": 9201,
      "samkeit": 9202,
      "übernimmt": 9203,
      "Mangel": 9204,
      "ax": 9205,
      "Stahl": 9206,
      "teils": 9207,
      "Kal": 9208,
      "dritte": 9209,
      "teiligen": 9210,
      "lastung": 9211,
      "99": 9212,
      "para": 9213,
      "Opp": 9214,
      "Live": 9215,
      "ungsverfahren": 9216,
      "uier": 9217,
      "had": 9218,
      "festge": 9219,
      "wettbewerbs": 9220,
      "rist": 9221,
      "UNO": 9222,
      "Steuern": 9223,
      "iertes": 9224,
      "kommunik": 9225,
      "Rumänien": 9226,
      "verschiedener": 9227,
      "Übereinstimmung": 9228,
      "NATO": 9229,
      "Komponenten": 9230,
      "Ratspräsidentschaft": 9231,
      "schicken": 9232,
      "your": 9233,
      "Behinder": 9234,
      "kohol": 9235,
      "bekämpfen": 9236,
      "lautet": 9237,
      "reichung": 9238,
      "perfekt": 9239,
      "aufgefordert": 9240,
      "Schulden": 9241,
      "ausgeschlossen": 9242,
      "verursacht": 9243,
      "Ausführungen": 9244,
      "komme": 9245,
      "PT": 9246,
      "ando": 9247,
      "konsequ": 9248,
      "forschung": 9249,
      "schätzung": 9250,
      "auftreten": 9251,
      "Änderungsanträgen": 9252,
      "Hän": 9253,
      "geprä": 9254,
      "Gestaltung": 9255,
      "SQL": 9256,
      "kern": 9257,
      "wältigen": 9258,
      "Zuständigkeit": 9259,
      "vollständige": 9260,
      "aket": 9261,
      "wechs": 9262,
      "leren": 9263,
      "kas": 9264,
      "wachstum": 9265,
      "angesehen": 9266,
      "work": 9267,
      "It": 9268,
      "kreis": 9269,
      "Gegend": 9270,
      "bestimmen": 9271,
      "tp": 9272,
      "wh": 9273,
      "Fähigkeiten": 9274,
      "ual": 9275,
      "position": 9276,
      "Ausführung": 9277,
      "Vorschlägen": 9278,
      "arität": 9279,
      "Kilometer": 9280,
      "anstatt": 9281,
      "Schönheit": 9282,
      "Gesetzes": 9283,
      "baut": 9284,
      "location": 9285,
      "fehlt": 9286,
      "Verbindungen": 9287,
      "Ersatz": 9288,
      "maschine": 9289,
      "col": 9290,
      "annehmen": 9291,
      "breit": 9292,
      "ausgestat": 9293,
      "ek": 9294,
      "Aktien": 9295,
      "98": 9296,
      "EZ": 9297,
      "HT": 9298,
      "Spaz": 9299,
      "Partnern": 9300,
      "erör": 9301,
      "Programmen": 9302,
      "erwähn": 9303,
      "entdeck": 9304,
      "Schlafzimmer": 9305,
      "Nahen": 9306,
      "hervorheben": 9307,
      "08": 9308,
      "Glauben": 9309,
      "Schatten": 9310,
      "Konto": 9311,
      "Drittländern": 9312,
      "book": 9313,
      "klaren": 9314,
      "Festlegung": 9315,
      "Mau": 9316,
      "eins": 9317,
      "Zah": 9318,
      "itäre": 9319,
      "höchst": 9320,
      "Krankheiten": 9321,
      "ziplin": 9322,
      "kurzen": 9323,
      "beglückwünschen": 9324,
      "ago": 9325,
      "Bru": 9326,
      "sidi": 9327,
      "Geschäfte": 9328,
      "Noch": 9329,
      "ful": 9330,
      "kontinuier": 9331,
      "serviert": 9332,
      "schlägt": 9333,
      "füllen": 9334,
      "Ware": 9335,
      "kter": 9336,
      "Prin": 9337,
      "mä": 9338,
      "berge": 9339,
      "Websites": 9340,
      "anspruchs": 9341,
      "ij": 9342,
      "echten": 9343,
      "sichere": 9344,
      "Emissionen": 9345,
      "Angst": 9346,
      "Dub": 9347,
      "Gemeinde": 9348,
      "schule": 9349,
      "Sar": 9350,
      "otte": 9351,
      "Kontext": 9352,
      "eitag": 9353,
      "zugunsten": 9354,
      "erreichbar": 9355,
      "gespeichert": 9356,
      "Cha": 9357,
      "Pin": 9358,
      "häuser": 9359,
      "notwendige": 9360,
      "Power": 9361,
      "CO2": 9362,
      "genehm": 9363,
      "verbringen": 9364,
      "Radio": 9365,
      "viertel": 9366,
      "Plattform": 9367,
      "Original": 9368,
      "ssen": 9369,
      "aktiven": 9370,
      "Anwendungs": 9371,
      "zuständigen": 9372,
      "durchführen": 9373,
      "Panor": 9374,
      "Haft": 9375,
      "intensiv": 9376,
      "Urspr": 9377,
      "Gewinn": 9378,
      "Verrin": 9379,
      "bestätigen": 9380,
      "beschränkt": 9381,
      "95": 9382,
      "gefallen": 9383,
      "din": 9384,
      "erseits": 9385,
      "Redner": 9386,
      "bezahlen": 9387,
      "64": 9388,
      "chner": 9389,
      "Hohen": 9390,
      "nachhaltigen": 9391,
      "Alternative": 9392,
      "lowak": 9393,
      "Gewicht": 9394,
      "dich": 9395,
      "sodass": 9396,
      "ehrgei": 9397,
      "wirtschaftlicher": 9398,
      "Costa": 9399,
      "verabschiedet": 9400,
      "stande": 9401,
      "Gleichgewicht": 9402,
      "entz": 9403,
      "iser": 9404,
      "geprüft": 9405,
      "other": 9406,
      "Kommun": 9407,
      "mung": 9408,
      "früheren": 9409,
      "MO": 9410,
      "angemessene": 9411,
      "austausch": 9412,
      "diver": 9413,
      "Aktionsplan": 9414,
      "Ziffer": 9415,
      "Ap": 9416,
      "top": 9417,
      "erstre": 9418,
      "Studio": 9419,
      "Internets": 9420,
      "veränder": 9421,
      "sin": 9422,
      "üler": 9423,
      "äumen": 9424,
      "pra": 9425,
      "zulassen": 9426,
      "Alles": 9427,
      "Automobil": 9428,
      "jetz": 9429,
      "dauern": 9430,
      "Dra": 9431,
      "Himm": 9432,
      "Sum": 9433,
      "Entwicklungsländer": 9434,
      "wirtschaftlich": 9435,
      "Drittens": 9436,
      "palästinens": 9437,
      "Umgang": 9438,
      "Arbeitsplätzen": 9439,
      "Wird": 9440,
      "Trend": 9441,
      "dal": 9442,
      "Sonne": 9443,
      "Afghanistan": 9444,
      "05": 9445,
      "DS": 9446,
      "back": 9447,
      "Arbeitsplatz": 9448,
      "gewissen": 9449,
      "moment": 9450,
      "Werbung": 9451,
      "Umfeld": 9452,
      "GB": 9453,
      "has": 9454,
      "aufnehmen": 9455,
      "1995": 9456,
      "isser": 9457,
      "einzigartige": 9458,
      "Prinzipien": 9459,
      "banken": 9460,
      "istik": 9461,
      "Ange": 9462,
      "Klar": 9463,
      "Är": 9464,
      "Büro": 9465,
      "Frie": 9466,
      "2020": 9467,
      "Konzer": 9468,
      "Plenum": 9469,
      "Kompetenz": 9470,
      "angew": 9471,
      "behörden": 9472,
      "verbrauch": 9473,
      "Aktu": 9474,
      "time": 9475,
      "Regierungskonferenz": 9476,
      "pekt": 9477,
      "telefon": 9478,
      "Ima": 9479,
      "Kaffee": 9480,
      "telliten": 9481,
      "einig": 9482,
      "schre": 9483,
      "Optionen": 9484,
      "hörigen": 9485,
      "moral": 9486,
      "wohnen": 9487,
      "ausgezeichnet": 9488,
      "waffen": 9489,
      "Brasil": 9490,
      "izient": 9491,
      "gestaltet": 9492,
      "ossen": 9493,
      "Erholung": 9494,
      "Webseiten": 9495,
      "Symbol": 9496,
      "Einstellungen": 9497,
      "maler": 9498,
      "verleihen": 9499,
      "ausschuß": 9500,
      "Konvent": 9501,
      "sorge": 9502,
      "Vereinbarungen": 9503,
      "ermu": 9504,
      "Ungarn": 9505,
      "beschleun": 9506,
      "restauran": 9507,
      "Gerichte": 9508,
      "tent": 9509,
      "lim": 9510,
      "melden": 9511,
      "wollten": 9512,
      "tter": 9513,
      "Gründung": 9514,
      "Beiträge": 9515,
      "CHT": 9516,
      "schwei": 9517,
      "Sauna": 9518,
      "EF": 9519,
      "Bedien": 9520,
      "Fax": 9521,
      "geräte": 9522,
      "Verbot": 9523,
      "definiert": 9524,
      "Beziehung": 9525,
      "reform": 9526,
      "Pop": 9527,
      "Institut": 9528,
      "Mobilität": 9529,
      "verhindert": 9530,
      "Genau": 9531,
      "dé": 9532,
      "Mut": 9533,
      "ausgesetzt": 9534,
      "produkte": 9535,
      "verd": 9536,
      "trages": 9537,
      "tau": 9538,
      "abgestimmt": 9539,
      "ADS": 9540,
      "Veröffentlichung": 9541,
      "unmöglich": 9542,
      "bindet": 9543,
      "benutz": 9544,
      "Pack": 9545,
      "Trag": 9546,
      "Besonders": 9547,
      "dge": 9548,
      "Konsens": 9549,
      "welchem": 9550,
      "liziert": 9551,
      "haushalt": 9552,
      "Verringerung": 9553,
      "derartige": 9554,
      "Abhäng": 9555,
      "pon": 9556,
      "entsteht": 9557,
      "Ankunft": 9558,
      "Export": 9559,
      "Haftung": 9560,
      "John": 9561,
      "Fleisch": 9562,
      "Zentralbank": 9563,
      "Bemerkungen": 9564,
      "Konfigur": 9565,
      "ausend": 9566,
      "Anrei": 9567,
      "cas": 9568,
      "denkt": 9569,
      "verf": 9570,
      "direkten": 9571,
      "Room": 9572,
      "stür": 9573,
      "ausgeführt": 9574,
      "blo": 9575,
      "03": 9576,
      "Os": 9577,
      "schwä": 9578,
      "scheidet": 9579,
      "Problems": 9580,
      "Tari": 9581,
      "pas": 9582,
      "Außenpolitik": 9583,
      "dus": 9584,
      "Kabel": 9585,
      "sign": 9586,
      "geäuß": 9587,
      "Führer": 9588,
      "kal": 9589,
      "tifiziert": 9590,
      "Wünsche": 9591,
      "Geheim": 9592,
      "wässer": 9593,
      "passiert": 9594,
      "Einbeziehung": 9595,
      "Persön": 9596,
      "Deswegen": 9597,
      "grenzung": 9598,
      "hrt": 9599,
      "aka": 9600,
      "gebiete": 9601,
      "rechtliche": 9602,
      "spannung": 9603,
      "geringer": 9604,
      "44": 9605,
      "WLAN": 9606,
      "Luxus": 9607,
      "verschw": 9608,
      "Freiheiten": 9609,
      "gemä": 9610,
      "Jede": 9611,
      "treiben": 9612,
      "Faktoren": 9613,
      "ferner": 9614,
      "gigen": 9615,
      "sensi": 9616,
      "Tatsächlich": 9617,
      "sorgfältig": 9618,
      "Einwohner": 9619,
      "Verfahrens": 9620,
      "begrüßt": 9621,
      "rooms": 9622,
      "Back": 9623,
      "sub": 9624,
      "geltenden": 9625,
      "Know": 9626,
      "Por": 9627,
      "hinzufügen": 9628,
      "Premier": 9629,
      "65": 9630,
      "äne": 9631,
      "Arz": 9632,
      "Charta": 9633,
      "Regen": 9634,
      "hart": 9635,
      "Vorschlags": 9636,
      "07": 9637,
      "sc": 9638,
      "Digital": 9639,
      "steuerung": 9640,
      "Vermögen": 9641,
      "sph": 9642,
      "katastrop": 9643,
      "messen": 9644,
      "version": 9645,
      "nahezu": 9646,
      "individuelle": 9647,
      "Spazier": 9648,
      "Stimmen": 9649,
      "erleichtern": 9650,
      "Gesellschaften": 9651,
      "ethn": 9652,
      "Sorgen": 9653,
      "Anmerk": 9654,
      "verehrte": 9655,
      "Milch": 9656,
      "kurzfrist": 9657,
      "Kräfte": 9658,
      "ergänzen": 9659,
      "Alp": 9660,
      "ugh": 9661,
      "bildungs": 9662,
      "Bab": 9663,
      "Gespräche": 9664,
      "Deutschen": 9665,
      "gezwungen": 9666,
      "Zypern": 9667,
      "Beam": 9668,
      "block": 9669,
      "getrenn": 9670,
      "vorlegen": 9671,
      "chinesischen": 9672,
      "Preisen": 9673,
      "solange": 9674,
      "ars": 9675,
      "Identität": 9676,
      "israel": 9677,
      "weile": 9678,
      "Kriegs": 9679,
      "iendly": 9680,
      "exklus": 9681,
      "SI": 9682,
      "Martin": 9683,
      "Distribu": 9684,
      "Fei": 9685,
      "ochter": 9686,
      "ruhig": 9687,
      "ameter": 9688,
      "präsentieren": 9689,
      "Script": 9690,
      "ju": 9691,
      "dafri": 9692,
      "ppe": 9693,
      "niedri": 9694,
      "technologie": 9695,
      "fahrer": 9696,
      "Marke": 9697,
      "glaub": 9698,
      "ohnt": 9699,
      "bemühen": 9700,
      "stes": 9701,
      "sm": 9702,
      "Optim": 9703,
      "Bew": 9704,
      "Gepäck": 9705,
      "chron": 9706,
      "züge": 9707,
      "interessant": 9708,
      "Support": 9709,
      "Lam": 9710,
      "gebrauch": 9711,
      "aktieren": 9712,
      "Genie": 9713,
      "tatsäch": 9714,
      "Rechtsstaat": 9715,
      "air": 9716,
      "erinnert": 9717,
      "Marktes": 9718,
      "Pub": 9719,
      "lab": 9720,
      "heutige": 9721,
      "views": 9722,
      "Asien": 9723,
      "Säu": 9724,
      "höheren": 9725,
      "esch": 9726,
      "Politiken": 9727,
      "Provinz": 9728,
      "Betre": 9729,
      "Manager": 9730,
      "startet": 9731,
      "angt": 9732,
      "cer": 9733,
      "klei": 9734,
      "tan": 9735,
      "bestehende": 9736,
      "dahin": 9737,
      "Group": 9738,
      "Fi": 9739,
      "Sing": 9740,
      "ntag": 9741,
      "Korru": 9742,
      "Schweizer": 9743,
      "übrigens": 9744,
      "Selbstverständlich": 9745,
      "CE": 9746,
      "vid": 9747,
      "uropäischen": 9748,
      "Rob": 9749,
      "unent": 9750,
      "jegliche": 9751,
      "geschn": 9752,
      "39": 9753,
      "Reser": 9754,
      "Subsidi": 9755,
      "BIP": 9756,
      "http": 9757,
      "Gefahren": 9758,
      "Kommunikations": 9759,
      "akzeptabel": 9760,
      "Betrug": 9761,
      "kö": 9762,
      "enha": 9763,
      "schluß": 9764,
      "schweren": 9765,
      "antwortet": 9766,
      "Zielen": 9767,
      "werks": 9768,
      "Verlust": 9769,
      "sorganis": 9770,
      "Nav": 9771,
      "Vorhaben": 9772,
      "zugang": 9773,
      "ded": 9774,
      "frem": 9775,
      "Semin": 9776,
      "rucht": 9777,
      "verringern": 9778,
      "MB": 9779,
      "arab": 9780,
      "kolle": 9781,
      "Sur": 9782,
      "einheitlichen": 9783,
      "Mex": 9784,
      "traditionelle": 9785,
      "fron": 9786,
      "stern": 9787,
      "liber": 9788,
      "bilater": 9789,
      "opti": 9790,
      "lässlich": 9791,
[...]
